Ġdocumentary	11648
Fred	30847
Ġresume	15294
Ġsequencing	32841
Ġview	1570
Ġterritorial	22414
swer	17845
ĠBlackwell	40622
ensity	6377
ryce	28169
Ġmemorial	17357
Ġpaired	20312
ĠMedicare	13771
ĠShade	48747
ĠAssad	13032
geons	16297
Ġpatiently	37220
Ġbriefed	32664
Ġheight	6001
ĠCato	44509
pat	8071
keep	14894
ĠAi	38230
ĠAve	12761
irming	29808
involved	44697
ĠJamie	17826
Ġattempting	9361
ĠChanging	33680
Ġhurt	5938
Weapon	27632
ĠBungie	47593
Ġprotection	4800
Ġridiculed	47263
nb	46803
ved	1079
ĠHerm	18113
Ġdisinfect	48511
Ġresidues	47185
Analysis	32750
KT	42176
inness	32990
ĠCall	4889
ĠPadres	40188
pta	32283
ĠHels	33889
ĠSerpent	30177
Ġhighly	4047
ĠSacrament	18114
unique	34642
sense	33819
ĠâľĶ	28497
Ġtopical	39867
ĠMyst	32347
ĠGust	26657
ĠMAC	20582
ionage	24919
Ġfuturistic	36701
ĠCedar	36758
Ġattorney	6136
ĠBaldwin	26402
ĠToll	44786
again	17776
æĿ	30266
Ġbraces	47241
Ġignored	9514
Jet	42273
ĠAdmission	44025
Ġencouraged	10085
Ġouting	32922
ĠCanaver	46858
Ġbegun	9258
Ġpossibility	5885
ĠFac	13585
Boot	36476
ĠTrib	10841
Ġmyster	6141
Ġcalibrated	48050
ĠMilky	34822
Developer	45351
nesday	3462
Ġasshole	29836
Ġarcs	44606
Ġinvolve	6211
band	3903
uous	5623
onne	47476
aterial	2273
GET	18851
derived	34631
USB	27155
ĠChes	28250
Ġvacancies	48639
ilingual	34900
1963	45192
cover	9631
Bey	21993
iko	12125
lege	2765
nav	28341
oids	10994
ĠTourism	42057
Ġvelocity	15432
Ġhuh	24926
ĠMole	25726
Ġcomplains	41165
Ġconvers	3453
Ġfrivolous	48461
Ġparking	7647
ĠFULL	34958
ĠManagement	8549
ĠRC	13987
ĠHandle	33141
acts	8656
ĠStarted	31026
ĠBunny	28683
Ġkne	24813
ĠHel	5053
ĠCot	42266
ĠVID	32247
Ġautumn	23608
ĠKeeping	33311
arin	17714
Ġmurdering	33217
ijn	48848
ĠCorey	24154
Ġfoam	19828
Buy	14518
ĠMalaysia	15336
Ġspont	18324
ĠJuda	24771
Ġproletarian	47393
Ġstockpile	45360
Ġviewer	19091
Stream	12124
Ġsidelines	29394
Allow	35265
ĠArctic	15723
Ġdiving	23186
isers	21572
at	265
Ġblade	11865
Ġquirks	48072
ĠHiro	25940
%,	7441
Universal	38747
Ġdying	9950
Ġgol	43791
lÃ©	45031
Ġcarriers	16651
ĠLanding	29689
Ġadorable	29012
644	29173
sis	13429
ĠCrimes	32655
ĠMorning	14410
por	1819
oppers	37186
ĠSF	14362
Ġhilarious	20105
Ġaerial	17789
ĠPandora	28518
Ġlateral	25653
South	14942
Ġconserve	45075
Ġgriev	21634
Ġlasers	34628
ĠFederation	11937
Ġpicked	6497
iza	23638
Ġpill	9582
377	26514
ĠGibbs	41071
Ġtears	10953
Ġ53	7192
Ġ225	18500
Ġ264	32158
Ġneeding	18139
Ġglorious	21140
Ġdiner	47519
Ġworn	12666
Ġlevels	2974
ĠElder	15624
ĠAMERICA	49463
ĠLEGO	29108
ĠYemen	12492
Ġanimals	4695
ĠLibertarian	30226
ended	1631
Ġreceptions	35401
Ġmillennia	38710
Ġunleash	33502
eworld	38136
Ġfavourable	37742
ĠPNG	36182
Ġarguing	11810
Ġreluctantly	35462
Ġballistic	22681
healthy	22796
Ġfeeding	13017
Ġlegions	44395
Ġproceedings	13106
332	32148
Ġpersonnel	8213
ĠConvers	32200
Road	29197
circle	45597
å½	37605
Ġelemental	25601
Ġexample	1672
Ġautomation	22771
ĠRebel	24551
Đ	204
Ġapplaud	22517
Ġdenote	42685
against	32826
cakes	37263
hz	32179
Rules	37766
ĠBent	20421
Ġcrews	18936
Ġgrinding	28436
Ġhearing	4854
ĠAnat	28880
ISION	42446
return	7783
Ġobscure	18611
ĠColumb	6845
ĠPassive	31652
Ġclashes	21022
Ġpy	12972
Ward	49021
ĠVenture	35686
Ġscaff	41498
Ġanchor	18021
Ġ1990	6303
cross	19692
Ġscam	19126
ĠNiet	28428
orescence	48699
ĠYankees	20082
Ġelections	7024
Microsoft	15905
Greg	25025
Ġformerly	15734
Ġ1998	7795
Ġtravels	17781
Ġvictims	4970
Ġviewership	48347
kov	21862
yrights	49158
ĠMostly	33495
ĠXia	22450
Ġyeah	10194
',"	40264
ĠIllum	39256
lore	31131
Module	26796
ĠTes	10696
Ġsniper	26160
Ġstarch	39515
Ġvitro	30590
ags	3775
.:	11207
803	43564
ĠGoose	46317
ĠThatcher	31706
Ġactions	4028
Um	37280
Wing	35612
ber	527
Ġalters	40866
ĠBrass	32309
ecast	43299
Ġcapt	3144
Ġinstructed	17767
Ġmessed	32621
ĠMI	15789
Ġpyramid	27944
Ġslices	24314
Ġhugs	40657
Ġviolate	16967
atography	45501
ĠMachines	31182
ĠFriedman	25865
iences	10035
Ġbenefiting	39125
Ġrecoil	30476
Ġbrakes	23746
ĠVAL	26173
wards	2017
Ġ7	767
ĠInfect	26065
ĠPles	48468
neum	25668
Ġgrid	10706
Ġinfluences	16717
Ġvowel	48617
hetical	21485
345	27712
done	28060
Ġdysfunctional	38127
Ġdelegates	15265
Overview	29064
ĠAld	15586
Ã¼	9116
bl	2436
icio	46441
Luke	30730
link	8726
188	20356
ĠSaber	40506
Ġavert	45347
Ġcarp	39465
Ġitem	2378
ĠKey	7383
Ġjoins	15449
Ġanguish	41210
ĠInvest	7488
ĠRepeat	30021
Ġcrore	22306
ĠHen	6752
Ġchromosomes	42742
Ġjets	20792
usive	11350
Requ	16844
ortunate	13651
owe	47097
AMP	23518
catentry	39165
ĠAlbert	9966
ĠJab	24404
886	44980
ãĤ¿	23376
Mary	24119
Ġgripping	39931
STRUCT	46126
ĠLose	44927
Ġbully	27410
Ġ416	38158
ĠPier	13762
"!	40484
ĠPoe	34815
Ġcongratulations	45108
Ġfather	2988
Ġhangar	44338
Ġleaks	17316
Ġleaning	21804
Ġlev	23145
Ġlure	26166
Ġseparat	22439
Ġrigid	20831
43	3559
602	31418
moral	41996
Ġstoked	49019
and	392
Ġreferenced	20717
eret	31229
Ġaura	22491
Ġautomate	43511
atche	24809
?	30
Ġgard	16985
Ġhysteria	38893
ĠDialogue	34709
ĠGra	7037
Ġpertinent	35268
Ġblindness	37673
Ġpolicing	21922
Ġreporters	7638
Ġsectarian	28005
Ġservicing	43346
Ġorgan	1618
21	2481
ĠSanders	5831
Ġshale	30498
Ġsymbolism	36913
Ġvibr	12611
Ġtrauma	14649
Ġdetonated	38754
ĠBrent	23357
cerpt	17040
ĠTsuk	28835
ĠWinter	10633
riad	21244
Ġbomb	5194
ĠTemple	10857
Ġdetailing	22976
de	2934
ithub	10060
Ġreflex	24133
facing	29532
Ġbreast	9296
Ġreport	989
Contribut	37146
message	20500
isson	30927
original	14986
ĠDisplay	16531
ĠTownship	32115
Ġ229	31064
ĠPetr	47377
Ġbas	1615
yes	8505
THING	39356
Ġ"/	12813
ĠTheory	17003
Ġassessed	15276
Ġerected	28415
Ġgadget	42892
byss	15040
510	33690
Storage	31425
chlor	36813
ĠCN	31171
sharing	21987
ĠContains	49850
wart	24657
ĠKeith	14926
ĠBar	2409
99	2079
RL	7836
ĠDew	25075
ĠSophia	39953
Ġappropri	4148
Ġprojectile	26489
Ġsniff	26300
Ġwholes	17950
Ġbind	11007
flex	32880
ĠTorment	47195
Ġreminiscent	24960
ĠElectronics	27828
Ġr	374
imately	3358
Ġba	26605
value	8367
Chair	43189
Ġpipe	12656
Ġweaken	13813
Ġdefendants	16757
Ġtemple	12505
ĠMarino	46043
ĠFCC	15915
ĠAdministration	8694
ĠJay	9180
Ġpeel	31738
offensive	45055
Ġmoniker	45237
Ġ(.	20262
inately	48618
ĠPoly	12280
ĠEll	7122
Ġdots	22969
itcher	23640
Ġsnacks	28487
047	48000
Char	12441
ardless	14694
ĠBackup	35071
ĠFeder	35089
ĠDeliver	43371
ĠIncrease	25285
ĠKubrick	46354
Ġstability	10159
Ġtherapies	29596
Ġ373	47946
Ġscreaming	14788
Ġasserts	29348
Ġmolecule	27756
Romney	42184
Ġego	19225
AKING	43602
Ġhearts	11954
Ġrappers	50233
Ġstra	3534
illation	40903
Shipping	45169
Ġconstit	7892
Remove	27914
Ġhindered	49186
Ġion	22088
Ġirony	21296
Ġluxurious	35985
Ġdefunct	49119
Ġsimplicity	21654
Ġpsychiatric	19906
Ġtyped	25683
isol	30152
Zone	26961
Ġhuge	3236
ĠNikon	31356
Ġsteril	30429
Ġoverwhelmingly	21658
ĠDys	46876
Ġagg	4194
oples	12614
>>	4211
ĠQuad	20648
ĠPoland	12873
comm	9503
ĠAmnesty	30046
ĠRomney	8431
ĠTong	26565
mia	20730
ĠAviv	28890
Ġaliases	47217
Battle	24064
NP	22182
ĠTrace	34912
Ġjails	39435
rophic	18191
Ġassumed	9672
ĠOng	48041
Ġposed	15459
Ġcounted	14789
Ġpreached	38737
ĠFounding	44593
Blocks	45356
lav	18809
UFF	47588
iolet	19194
uten	7809
ĠVinyl	45949
Ġaz	35560
whelming	36433
Rect	45474
Ġcabin	9351
ĠBelfast	29713
ĠMinister	4139
Ġcla	26435
Pull	42940
van	10438
amorph	37670
ĠMcDonald	14115
ĠYates	34916
98	4089
Ġcorps	16812
187	23451
ĠCousins	32644
arsity	45826
ractical	36112
Scroll	29261
Ġcrises	25712
Ġelim	5687
Ġexplan	6166
Ġinteresting	3499
Ġmemory	4088
Susan	45842
Ġostensibly	31454
Ġtroopers	38817
ĠÂ¶	30581
Ġofficers	3790
ĠPamela	43341
ĠTHEY	33302
Ġbunny	44915
????	9805
Ġfall	2121
eg	1533
Morning	42997
anova	40993
Ġamidst	31095
Ġconsoles	22629
herry	13372
Ġanomal	26921
Der	28532
bis	41907
Ġcourts	8028
opter	32563
Ġgluten	21578
Ġhunger	16460
ĠBroadcast	44244
Ġinherited	19552
Ġsecession	43314
Ġwife	3656
ĠCavaliers	29411
weekly	45291
Ġdelegated	49711
ĠâĢ¦	3926
Ġmeticulous	47628
Ġpunishments	35518
Tip	28434
ĠTB	23799
Ġparticipant	18399
Ġro	686
CONCLUS	47542
ĠMechanical	19663
Ġpaycheck	37751
Ġelectrons	28722
discrimination	42723
orman	26183
Ġgrowers	33527
Shield	33651
Ġteased	35380
ĠJohnny	15470
ĠÃĹ	13958
Ġsubversive	49685
Ġinf	1167
levels	46170
ocide	16207
Ġdebunked	46682
Ġjack	14509
Ġexecutives	12353
which	4758
MAT	41636
Ġdowns	21838
Ġglean	41881
Characters	48393
bach	19496
Ġmosa	39788
63	5066
Ġinvestors	7713
Ġbreakdown	14608
ĠDream	7610
ĠMach	7080
Ġadolescents	25447
uces	26873
Ġhalted	27771
ĠBST	44992
235	22370
ĠBentley	38881
Ġignited	40442
Ġhotly	50180
Cass	43529
Knowing	45648
atered	34190
ÙĲ	44208
unctions	46797
ĠYuri	38450
_>	49029
dj	28241
often	28950
Ġblender	40047
Ġsurround	4573
ĠWhilst	40661
ĠBrewing	19321
ĠSubmit	39900
dro	22285
Ġacross	1973
ĠQC	36070
Ġconfines	39293
Ġconsolidated	27890
Debug	27509
EPA	40906
sie	44524
ĠSo	1406
purpose	29983
Ġcoloured	34746
ĠSpringfield	27874
Ġset	900
Ġwore	12408
gger	26679
143	21139
mopolitan	44331
Ġphilos	5622
ĠParticularly	47674
Ġexploding	30990
Ġguy	3516
ĠðŁ	12520
Ġfashion	6977
Ġsem	5026
estone	13631
',	3256
shell	29149
Ġdefe	7503
Ġfiery	27810
ĠMistress	38499
Sum	13065
Ġ10000	33028
Ġvetoed	49581
Ġexperiments	10256
Ġoverride	20957
ĠKentucky	11867
ĠSinai	33745
Ġeveryday	10908
Ġnoticeably	33752
Ġpharmac	25702
ettings	12374
ĠDough	48179
Ġraped	16110
Ġcapture	8006
ĠHI	36210
only	8807
ĠCrypt	15126
ĠGh	11972
Ġkindred	46449
ĠSkin	17847
ĠWeight	14331
Ġemployment	7184
Ġmute	38723
append	33295
"-	26793
ãĤ£	16646
Ġrenewal	22901
đ	205
Ġprofessional	4708
Ġbike	7161
IVER	38757
ieth	19235
terday	6432
uously	24987
Ġdeceptive	34036
MHz	25983
olve	6442
ĠHume	45485
Ġriot	16352
Amazing	42770
Ġdetainees	25027
Ġtongue	11880
acerb	22428
block	9967
Ġsecrets	13141
ĠLithuan	49033
Ġmiscar	35976
Ġpossessions	23309
EEEE	35039
Ġmans	25045
Ġtrajectory	22942
So	2396
odium	12664
ival	2473
aro	12022
graph	34960
Ã¶	9101
Ġ334	42819
Ġswept	17676
ĠTrue	6407
Ġblocking	12013
Desc	24564
bos	39565
wh	1929
ĠContext	30532
ĠIncreasing	38921
Ġnumbers	3146
Ġpro	386
Cho	22164
Maria	46827
gross	47181
ĠKitt	43670
uries	4740
ĠPens	38740
ĠRegener	40721
ĠYep	40810
ĠSpeedway	46000
Ġcomfortably	24341
changed	40985
Ġexercised	25805
amins	24937
tered	4400
Ġclose	1969
ĠIdlib	33254
Ġarmor	8328
ĠBASE	49688
Ġforecasting	41164
awi	23368
ĠCarbuncle	35818
Ġmsec	43242
Tan	45557
Ġnot	407
Ġpersistent	16218
Ġrookies	39777
ilantro	48311
Ġsituations	7445
Ġstereotyp	29248
éĸ	38461
ependent	8682
ĠAutom	17406
Ġcomma	39650
prim	19795
á½	45495
ascript	15961
ĠLIB	45651
Ġoffenses	18514
Ġperpendicular	47190
Ġevenly	21894
ĠElectric	13944
ĠHonduras	32982
erers	19288
597	43239
Ġsimultaneous	29526
gon	14520
ĠFirefox	16802
Ġmalls	43890
Lot	48601
Ġsubsections	46310
Ġdeceived	40889
Ġhandful	10089
Ġsuspend	22004
Arc	24021
Ġfrustrations	40447
raction	7861
athi	44202
Ġbehavi	6598
Ġredd	14688
Power	13434
Ġ2500	33507
ĠAbdullah	26804
ĠForty	38223
ĠShah	18381
Ġrubble	29632
Ġsmiles	21845
asure	5015
Ġdiscovery	9412
Ġdon	836
Ġgoing	1016
Ġofficially	8720
ichi	16590
234	24409
mittedly	43011
ĠHulu	39739
iveness	6517
Me	5308
Ġelectoral	13901
Ġhappily	18177
Ġconvinc	15609
Ġforg	5784
idon	47287
Ġparentheses	46672
Ġcollided	43449
ĠCivil	7511
Ġcourtroom	24832
Ġauditor	30625
Ġpilgr	23177
Ġsimulator	35375
Ġspelled	32213
uss	1046
n	77
munition	12640
ĠHandbook	30579
429	11785
ĠParkway	38613
Ġwithdrawing	36395
Ġfrontal	30424
ulator	8927
Ġnamespace	25745
ĠMis	14136
ĠElise	46174
ĠKlingon	45684
Ġ247	30179
ĠInteger	34142
Ġembod	13968
Á	125
Ġgraz	32703
mostly	29471
Ġfond	16245
Ġmeticulously	46553
Ġstubborn	24444
ĠFRE	44253
Ġfullback	49570
assault	46635
Ġsharp	7786
Ġspeed	2866
ĠHEL	36255
Ġgym	11550
382	36243
Ġlov	42900
Ġ<	1279
Ġshook	14682
iny	3541
Def	7469
server	15388
ichael	40302
ĠChevrolet	35398
ĠCroat	22422
ĠEnchant	33293
Ġemphasizing	36360
Ġspontaneously	37512
Ġfetus	31076
Ġteenagers	17366
Ġelaborate	15962
Ġcorresponding	11188
ĠFIA	49432
ĠNOR	25273
ĠBru	8274
ĠSupply	22663
arry	6532
ctx	49464
boat	24482
ÂłÂłÂłÂł	8828
ĠAGA	36218
Ġ1893	48889
ribe	4892
ĠEqual	28701
ĠHep	32308
ĠJeanne	48202
Ġmajestic	45308
Ġtable	3084
ĠPV	31392
Ġregularly	7987
ĠMedieval	30294
hop	8548
Ġmug	25152
Ġoriginals	47324
Jewish	28240
Princ	42904
setting	33990
stery	41991
ĠGron	40214
Lear	14961
ĠHack	18281
ĠRescue	17285
Ġolds	44979
Ġpurchased	8155
Ġrehab	14321
ãģ¨	30201
ĠSummon	19515
Ġsmoke	7523
ļ	248
Ġsus	2341
ĠCITY	27993
TP	7250
Howard	32434
icester	26382
çİĭ	25581
Disney	37338
ĠByrne	38245
VS	20304
ĠCran	32919
ĠBrendan	26134
ĠFord	8092
ĠChrist	1951
Scientists	29193
ĠMessage	16000
ĠMiller	7920
ĠShu	32344
ĠWildcats	46011
ĠTHREE	48697
Ġantique	38504
Ġeuph	40381
Ġsplash	22870
Ġbiod	32449
ĠRasm	39933
Ġsizes	10620
ulu	15712
..."	9313
ĠNigel	28772
designed	30473
Ġsatir	31621
Prince	35784
acco	8679
SO	15821
oa	12162
ĠMonitor	18289
Ġmuc	30322
Ġwoman	2415
307	22996
dimensional	19577
ĠOlympia	45760
ansion	5487
Ġrebellion	21540
Clinton	16549
ĠPanda	41112
Ġnavy	23956
643	41813
Ġclarified	28464
Ġdouble	4274
Ġprevail	28615
Ġnipple	45915
Ġscreamed	25421
Ġfinest	18822
pain	35436
oine	42722
portion	16864
Ĺ	245
mid	13602
neys	20141
Ġroadway	35852
itudinal	29121
average	23913
Ġetiquette	49455
ĠDeL	49571
Scar	44433
ield	1164
ĠSurvivors	45998
ĠBiblical	31752
Ġmonitored	20738
requ	8897
Ġrou	13805
oning	12484
ĠBuddhist	20838
Ġinexpensive	24475
ĠLeading	43225
Al	2348
Ġtranscripts	29351
ĠFollow	7281
ĠOriginally	19486
ĠViolent	35615
Ġinventive	47602
Ġlocations	7064
Ġeldest	34331
ĠMN	29060
Gene	39358
Ġassessment	8922
ĠSanct	43990
Ġthrow	3714
ĠCuriosity	39736
ĠTik	46338
626	45191
finder	22805
Ġcomputers	9061
Ġexpend	12220
eways	43613
case	7442
icia	33577
mix	19816
Ġbruised	44379
recent	49921
uliffe	45228
yers	21200
ĠFundamental	49983
ĠOffer	33085
Ġhop	1725
Ġmisconception	43122
Ġ288	35419
Ġinfections	16079
Ġgolf	13126
render	13287
son	1559
ĠCCTV	36983
Ġbirth	4082
Ġderiv	16124
ĠEstonia	30912
Ġcalib	27417
Ġkan	43998
Mut	41603
elta	12514
Ġ2012	2321
erker	35779
hai	44488
ensional	37176
ĠChapel	32939
ĠMam	29926
ĠOccupy	25551
ĠSag	25605
ivity	3458
ĠBras	39452
ĠServices	6168
ĠStrikes	37836
Ġaffiliated	18552
ĠShroud	40246
ESH	44011
Ġcatering	39211
rocket	30431
Stud	13007
ĠCongressional	15757
97	5607
Ġcharred	50045
Ġdorsal	45254
Ġgrams	16379
Ġinflicting	45727
Ġkeyboards	34512
Ġpast	1613
Ġpublishing	12407
ĠAround	16824
Sab	39646
ĠEvidence	21259
ĠCaucasus	47990
Ġcollisions	31998
yl	2645
Ġretarded	34445
rification	38763
Ġsq	19862
INK	17248
Ġsurn	33113
ĠKraft	41828
ĠItem	9097
Ġpesky	49109
PsyNetMessage	28666
-)	25106
az	1031
ĠHarbaugh	39944
Ġsuperficial	31194
Ġtesting	4856
ĠCrush	40104
ĠIndigo	40673
Ġpersuasion	41784
Ġrequest	2581
Ġneither	6159
Ġvertically	31677
Ġaccessed	17535
ĠThe	383
ĠEuro	1898
ĠCircus	46658
OP	3185
ĠFlex	26719
Atl	25255
Ġgenus	34306
feature	30053
Ġheroes	10281
Ġregulate	16697
ero	3529
760	40761
lect	801
ĠPurple	17265
Ġtether	49477
Ġvolunt	11631
AAAA	17922
Ġprocessing	7587
ĠAsheville	49362
caster	17970
estival	6743
Ġanonymous	11614
Ġguitars	32497
mega	13731
ĠArduino	27634
Ġcoli	40395
ĠPRE	22814
Ġboys	6510
ibble	43992
pillar	41643
Ġgreenhouse	16325
Ġgn	19967
Ġlengthy	16452
Deb	16587
anos	40015
ĠAgg	19015
ĠByzantine	45772
ĠFIRST	31328
ĠSit	21131
ĠTig	14189
ĠTopics	34440
Ġcompositions	33543
bt	18347
ĠEpiscopal	48378
Dad	46270
Emb	31567
Ġatom	22037
virtual	32844
Ġauthorization	19601
Ġfavorable	17070
Ġpartying	49901
Ġpleasing	28790
Kids	40229
Ġconcentrations	14587
ĠPeoples	41770
ĠAugustus	48339
ĠALWAYS	49576
ĠKrug	39968
Ġdizz	29527
Ġencounters	16925
VERTISEMENT	18679
Ġfleeting	42738
Ġunsus	39391
Ġbreeding	18954
ĠSh	911
Ġsweep	16085
ĠLimit	27272
ĠLov	39911
Ġbeen	587
Islamic	26723
ĠKiller	19900
Ġstruck	7425
Ġsupply	5127
ocument	7990
ĠGovernor	10807
ĠSly	31615
ĠUkrain	5435
Ġcourtesy	12537
Ġcrawling	34499
Ġentity	9312
Ġcomplaints	9687
Ġface	1986
Ġrespectful	25923
Ġripped	19551
Ġstress	5503
ĠHamas	15767
ĠPatch	17106
???	28358
Sea	37567
ĠDaniel	7806
ĠViktor	31096
Ġbarbar	24837
gate	10494
Ġnerve	16384
Ġundergraduate	22952
ĠAmen	34717
ĠIndra	49886
ĠRP	25812
Ġdisastrous	20756
526	48531
Ġindividual	1981
Ram	33754
Ġsing	1702
ĠUpdated	19433
ram	859
elfare	27122
68	3104
Ġ1949	24977
ĠHacker	34399
Ġdisappointed	11679
Ġshared	4888
ĠFuk	22431
Ġdownwards	44890
Ġfranc	46754
Russell	46325
Ġmastering	45116
Ġnowadays	26760
Ã¶n	48863
043	48768
Ill	21478
trade	25351
ignment	16747
ĠChapters	42448
ĠFried	15442
vp	36133
roups	14459
Ġemployer	9749
Ġprecursor	34826
Ġautos	44619
Ġdetention	13280
Virgin	34674
Ġrotten	36371
edin	27152
Fig	14989
fu	20942
ĠPatriots	13104
ĠDogs	21367
ĠPER	19878
Ġattire	37629
Ġcapabilities	9889
chenko	45059
ĠSilent	25083
Ġvocal	12435
ĠRee	29030
Ġforgot	16453
Ġinput	5128
function	8818
Ġattribution	39629
Ġmortality	12430
itis	11815
Ġsubscribing	18412
ectar	44504
į	235
30	1270
ĠLawson	35892
Ġclasses	6097
Finding	36276
ĠClay	15551
Ġdisposal	18264
ĠOilers	35004
les	829
oses	4629
ĠNay	38808
Ġstimulating	35640
units	41667
illon	23027
Ġfeature	3895
iven	1469
ishly	29735
Ġdenying	17086
Ġrice	11464
urring	14924
Ġboulder	46483
Ġoverall	4045
Ġrevoked	30809
liga	38910
nergy	5877
ELL	23304
ðŁ	8582
ĠHein	26431
ĠACPI	33465
ĠScientist	33374
Ġdeliveries	31167
Ġvacancy	39836
ĠGrimoire	43077
automatic	37800
ina	1437
atherine	15289
Ġtraitor	35731
032	49959
Ġbattered	33613
anuts	37555
lang	17204
hens	5135
Ġburying	48360
ĠBrewer	38822
ĠSubcommittee	42187
atility	18486
Ġhelpers	49385
esame	34038
ucle	14913
Ġemphasizes	31648
Ġprivatization	41110
helle	34454
ĠConn	20776
Ġsd	45647
centered	38050
Ġarc	10389
ĠMDMA	34883
Ġnonetheless	19018
Ġstreaming	11305
Ġteaser	38388
Ġthence	41952
ĠCarn	19659
FORM	21389
ĠBrazil	7595
ĠPig	23097
ĠHobbit	43877
Stat	17126
EC	2943
596	45734
?)	10091
offic	14406
otyp	17183
Ġaccommodation	19711
Ġdemos	35551
Ġoccupants	35242
Ġsqueezing	40237
VEL	18697
Ġtokens	16326
irl	1901
ceived	6471
ĠRolling	21567
ĠHear	26319
Ġjumping	14284
Ġolder	4697
ogue	5119
Matrix	46912
Sand	18471
ĠCommunist	14884
Ġambul	18907
Ġinception	30839
Utah	44350
Ġvibration	30999
ĠCorps	12778
Ġregenerate	43519
ĠAgent	15906
Ġprosperity	19519
Launch	38296
ĠTHR	35383
akens	31627
Ġstats	9756
ashion	5880
Ġda	12379
Ġdrivers	6643
ĠProcess	10854
Before	8421
Collection	36307
ĠCampaign	13718
Ġpatron	19686
119	16315
Ġupcoming	7865
Ġdiversion	34851
Ġquick	2068
Ġcoal	5655
krit	44531
Ġcute	13779
ĠReply	14883
ĠUkip	35736
Ġhomophobia	42583
Ġpsychology	15119
Ġapt	15409
webkit	43648
Ġ108	15495
Ġbats	19553
Ġsettled	10282
Ġblocked	10226
Ġroaming	31665
Ġfactor	5766
ĠRankings	40284
Ġweakening	34992
Ġspawn	10922
Ġwhiskey	29219
ĠKuh	46035
oglobin	49835
icians	5106
Ġmanip	7704
Ġawareness	9359
Ġautomobiles	44820
210	21536
Nov	20795
Ø§	12919
Tu	47247
Ġanalys	11090
Ġ1965	17672
Ġ104	14436
Ġreactive	32242
Ġ153	24652
ĠSpeak	40802
ĠSET	25823
Ġcounterfeit	36497
ashington	2542
Ġinsanely	40848
ĠGul	23472
!'	13679
ĠQiao	45724
Ġlou	21081
Ġpuzzles	24367
ĠPub	8525
ethy	33077
ĠRIGHT	33621
ĠCoord	22819
ĠGaia	37471
ĠOval	25165
ĠRug	19706
Ġpatriot	29408
Interested	48860
expected	40319
Ġspawned	29013
Ġhops	29438
Ġbag	6131
Ġ99	7388
Ġallow	1249
Ġaudience	5386
pool	7742
Ġdealer	16456
ĠGMT	16987
Marco	37179
TED	36493
Ġdischarged	26476
Ġflock	29556
Ġovernight	13417
Ġpartially	12387
Ġrating	7955
Alias	40489
ĠTyson	27320
ĠAlexand	21000
Bomb	48478
ItemThumbnailImage	39177
ĠSignificant	49631
Ġcorrecting	39038
Ġextras	33849
Ġfactual	27234
Ġslowed	20955
Ġunm	21303
ĠAtlas	22494
Ā	188
ackets	25180
ĠFlore	23347
ĠGlasgow	23995
Ġdefenders	16355
Ãł	24247
Pot	25396
ĠRodney	34895
Ġado	50129
Ġ1905	37166
ĠVerge	44499
Ġcatches	17591
Ġdictates	35054
ĠAdmiral	24646
Ġcompuls	27954
jee	34589
Ġgears	28713
Ġinconsistency	43831
Rs	31273
igi	25754
ĠEthernet	31903
ĠKear	43512
ĠCAD	37292
Ġlibrary	5888
OWS	22845
ĠField	7663
Ġdeviation	28833
Ġpolitely	34313
Ġevac	12015
Ġstaffers	23033
Fe	14304
opted	45256
duration	32257
forestation	41570
looking	11534
Cod	43806
ĠWheat	34744
Ġcustomary	33093
Black	9915
ĠImage	7412
Ġwonders	19294
ĠBangkok	35007
Ġbeaten	13125
\	59
pty	5835
ĠBrooks	17704
ĠElectro	38781
Ġrevolver	40968
Ġstems	21552
ĠHolland	16070
rieved	28130
ips	2419
Bus	16286
ĠJulian	18322
Ġstraw	14787
ãģı	31917
ico	3713
ĠDoll	22209
Ġ~/.	39763
ĠAluminum	35859
ularity	33737
-,	20995
ĠExplosion	45742
ĠGamble	49318
Ġfluctuations	31101
July	16157
ox	1140
ress	601
Ġdigital	4875
Ġguaranteeing	50156
Ġinsulted	40102
Ġregular	3218
90	3829
OTT	29089
pd	30094
cation	30907
orescent	35414
Ġinfographic	48033
Ġstupid	8531
Ġgranite	41013
ĠYad	41449
ĠFav	34395
ĠCOUR	37384
ĠHonda	20059
ĠWatkins	36832
Roll	26869
Ġbipartisan	20953
ĠCampus	25005
ĠShortly	27265
ĠSanchez	21909
north	43588
Slow	36423
dir	15908
ĠSatan	14918
ĠAVG	35224
Ġammunition	14271
Reference	26687
ĠPrague	37079
ĠTruth	14056
Ġdeter	2206
arro	34852
Ġexoner	43507
797	44673
Ġmonitor	5671
Frameworks	42026
chard	30215
riet	42098
ĠJagu	21117
Ġblast	11975
Ġahead	4058
Ġdragging	25046
Ġhybrids	45456
Ġdimensional	38517
Ġ380	29101
aku	8719
mys	28744
ordes	35770
ĠLIMITED	40880
ĠTyp	17134
Ġmultiplayer	16913
Ġhandheld	33811
Ġded	4648
Ġpatches	16082
Ġheaders	24697
ĠHuck	33703
aram	41158
ateurs	45211
Ġserotonin	32236
ĠBliss	44044
ĠYesterday	34668
lethal	46480
pering	21255
rogram	39529
very	548
ĠBelg	10952
wake	48530
ĠCases	35536
ĠCookie	39606
ĠCu	14496
ĠGlacier	49120
ĠSpiral	46727
Ġfeeling	4203
Ġbutterflies	44571
Ġpearl	43836
Pi	38729
ĠRather	11317
Ġphosphate	46926
Ġtragic	15444
ESE	33635
ĠAns	28038
155	18742
akery	33684
ĠOrders	30689
ĠDraft	13650
Ġcommenting	26387
afer	34659
ĠMarathon	24828
ĠMcKenna	48403
Ġawkwardly	43622
brain	27825
Ġflirt	44109
ĠMatt	4705
ĠUnion	4479
aer	25534
Ġaffects	10975
Ġrevital	32951
Ġempty	6565
Ġserpent	33727
Ġcommerce	19497
Hours	39792
ĠComplete	13248
needs	50032
Ġshortfall	41688
ĠElect	5903
Ġsingles	25287
chel	29232
ifter	18171
ĠAdvisory	23943
ĠTarant	43693
amph	28474
PRE	46437
Ġduring	1141
ĠTank	15447
Ġchrome	32030
Ġcis	33325
Ġesche	42833
Ġpostings	44656
Ġtents	29804
ĠShank	41595
incent	42816
idently	46046
ĠAlien	17610
ĠKansas	9470
Ġaccelerate	22636
ĠEver	10776
ĠScene	28315
Ġassign	8333
ĠCarr	20765
Ġfraternity	32474
Ġstatute	14195
disciplinary	40625
amer	2382
kept	45089
ĠSheen	50189
Ġallocate	31935
Ġ92	10190
Ġartifact	24127
Ġdescent	18598
cup	25244
ĠConversion	44101
iet	1155
ĠPavel	49612
aint	2913
ĠScalia	32575
ĠShawn	25225
ĠVec	38692
Ġdetermine	5004
ĠBoone	44317
Ġevade	31236
Ġdisc	1221
enth	7944
Vol	16598
esthes	29678
ĠMing	26980
animous	45873
Ġ212	23679
Ġfoll	22752
Ġguitar	10047
Ġhating	45701
Ġportrait	18560
ĠMPH	43822
spell	46143
stuff	41094
Ġclaws	28421
Ġprinting	13570
Ġreliability	17843
cap	11128
Ġstunning	13393
ĠBihar	45301
ĠTransit	22325
Pr	6836
Ġderailed	48769
ĠGian	30851
?????	19622
hex	33095
ĠSentinel	26716
Ġener	2400
Ãĥ	5746
ĠFIR	23703
Ġemulate	33836
Ġfil	1226
Ġincreasing	3649
Ġretain	12377
ĠJal	28649
Awesome	49061
fox	12792
bush	50231
ĠKane	20055
ĠLeia	41212
ĠSap	35980
ĠBare	38234
ĠWrong	28843
online	25119
Ġbattled	31472
ĠBonus	18770
Ġhavoc	29860
Ġlater	1568
Ġscarf	36953
Ca	24334
Ġsmoot	32746
ĠJericho	47782
BB	15199
419	45068
]-	45297
ĠGuarant	34234
Ġwine	8237
becue	31927
ĠUnicode	34371
Ġdeclared	6875
anguages	33213
Ġind	773
ĠCarol	5074
Ġexperimentation	29315
Beh	25267
Ġimper	11071
Ġdenouncing	45041
Ġmalnutrition	49290
Monster	40872
Ġmunicipalities	29364
ew	413
mite	32937
ĠCoun	3545
Ġresidence	11566
ĠUnlock	39626
Sn	16501
jo	7639
upe	48722
Ġquart	28176
SAY	27358
ĠSurgery	39037
ĠTOP	28662
Ġemits	48300
ĠArmen	17303
Ġarchitects	29518
Ġenvision	21786
iths	47252
ĠJP	21331
Ġheed	32420
Ġbackbone	32774
Ġpredators	23311
ĠVes	36448
paces	43076
Ġvacated	46346
ĠDead	5542
White	12256
inant	42483
er	263
Ġbizarre	13699
Ġhither	37706
isms	6583
Kent	42265
redict	17407
Ġ129	20248
ĠRover	36718
Ġmidfielder	18707
atically	4142
critical	34666
driving	24255
Ġstreamed	35377
there	8117
enough	48229
±	109
ĠBulletin	30551
165	20986
Those	9627
Ġ1922	36094
Getty	6633
ĠDevils	26199
ĠTou	23359
Ġadmit	9159
Ġbone	9970
Ġanticipating	40807
ĠUnicorn	39481
Ġbears	13062
elsh	21564
Elf	46995
Ġdealt	11829
Ġdeems	44426
Ġfortress	28757
ãĥ¥	24440
Ġnotch	29838
Network	26245
ĠQian	44696
ĠkWh	49223
Ġretali	28160
ĠBeet	39040
ĠLOL	35513
ĠSIGN	36771
Ġfoundations	19369
Ġser	1055
Ġtriumph	15499
Ġworkouts	27197
Ġ59	7863
workers	22896
Italian	45696
Ġreverse	9575
Ġseemingly	9775
Ġclimbs	34332
Ġomin	30366
ĠMPEG	41203
ways	1322
Ġ352	44063
Ġcumbersome	44491
cott	14612
Ġscout	24490
ĠTIM	31742
Ġoffline	18043
Ġstrugg	3569
Ġtriggered	13973
Bi	23286
RELATED	20112
riott	43517
winning	14463
Ġcents	16059
Ġloves	10408
Ġrobberies	43774
Ġsponsor	17487
Ġsynerg	39209
Ġphilosophy	8876
Ġbefore	878
Ġresurrected	41914
g	70
d	67
ĠAo	27378
zik	47303
ĠDept	28786
Quick	21063
ĠBalance	22924
udd	4185
agram	6713
inky	29246
JECT	23680
Mag	13436
ĠBlast	20641
ĠCLA	47666
Ġemail	3053
teenth	20283
Ġfloats	36016
Ġseldom	25129
Ġsuperst	23510
orney	4195
achu	32323
md	9132
ĠRoof	35271
Ġplacebo	17651
ĠHuckabee	38253
Ġbesides	13769
Ġtuning	24549
Ġseams	41280
ĠIntercept	37127
Ġdear	13674
Ġsatellites	20372
Atlanta	43482
ĠWorse	36855
antha	32589
Ġdraining	35939
Ġnomine	9049
akeru	43246
Sham	43478
ĠInspired	45827
ĠIntervention	43673
Ġsits	10718
Ġtroop	31874
Ġamounted	30008
acists	33194
Either	32478
ds	9310
Ġpeasant	30779
ĠJose	5264
ottesville	23806
ace	558
ĠSkyrim	21789
ĠMy	2011
Brexit	40730
ĠAtlantis	34779
Ġball	2613
Ġastroph	48782
starter	12339
Ġcooler	19346
ĠCard	5172
Can	6090
Ġdrained	29738
ĠHopefully	19996
Ġcharg	2609
vention	4018
RG	48192
ĠPOV	44604
Ġarmored	24856
ĠAlgeria	36498
ECD	27295
ĠCandle	44973
X	55
Ġcyn	19768
Ġextremely	4457
Ġgirls	4813
Ġhorny	42014
]."	29225
severe	43070
ĠCrimea	21590
ify	1958
Ġmature	15345
Ġmend	47618
Ġexperts	6154
Reporting	42159
Ġmaximal	40708
Ġrelentlessly	37952
Ġshaking	17275
Ġsil	3313
Ġvoluntarily	22295
watch	8340
ŀ	252
Swe	40783
floor	28300
ordering	34555
ĠChair	9369
Ġmanufacturers	11372
amen	41763
ĠNose	47880
ĠRams	16077
Ġdispos	12483
Ġ1976	15408
ients	2334
wallet	44623
Ġrugby	22948
ĠPeace	12689
698	39357
ĠDiscover	29704
Ġcostume	16569
Ġflyer	42464
Ġicy	30284
Ġproport	7601
Pos	21604
ppel	46357
ãĤ³	24679
GES	48075
Ġav	1196
inn	3732
ĠIRS	14440
Ġprovide	2148
Ġrand	43720
Average	26287
Ġapproximately	6702
Ġreplay	24788
enf	33701
Ġstunned	19987
Ġcheering	29732
Ġchances	8395
rom	398
Ġcryst	17787
xx	5324
Ġimpressions	25885
Ġcontains	4909
Ġdisparate	37433
Ġcoworkers	38945
Ġinsurer	38735
PA	4537
ĠKelvin	46577
ĠKnot	42572
Removed	45975
Demon	35477
Ġfortunes	27806
Ġinhuman	40190
attacks	38458
entially	3746
olved	5634
":-	48219
Ġ911	16679
Ġexplanation	7468
galitarian	39907
osexual	8542
ĠPuzzle	23966
rix	8609
Parser	46677
Ġcontingency	38820
Ġjustices	27818
ĠSPD	30628
Ġlandsc	25227
stud	19149
Ġpremature	19905
Ġsolic	25806
ĠJr	7504
gaard	36232
Ġveterin	33647
atisf	17403
ĠRev	5416
Ġbegs	38609
Ġsped	40424
Ġwaging	41747
Ġwrongdoing	25013
Together	41631
Ġ1951	27937
icate	5344
Ġdamned	28911
Ġrect	13621
psons	31410
Ġredesign	27135
slave	36341
Ġalgebra	37139
OH	12096
Ġstereotypes	22364
Ġcontemplation	50152
Ġxml	35555
ĠBatt	12350
Ġkeen	13795
spin	39706
ry	563
ĠPlease	4222
ĠBeer	16971
phia	8193
ĠRefresh	22539
Ġejected	38632
Ġparasitic	49238
Ġschedule	7269
ĠRocky	24534
Ġrepealed	32933
Ġcondom	33791
Ġbreeze	28633
Ġcamp	1413
pad	15636
ĠBauer	41971
Ġveter	5785
128	12762
©	102
ĠPyth	48657
Adams	47462
ĠCLI	43749
ogene	20878
ocrin	39913
Ġdilig	20645
Job	33308
Ġ280	21355
ĠBai	40750
Ring	39687
ĠSk	3661
ĠTypical	48752
Ġalthough	3584
Ġovercoming	36438
ĠFreed	38728
hell	12758
ĠAnthropology	50171
Ġbarb	42577
Ġflexible	12846
Ġleapt	43713
Ġbothering	41656
Ġventures	33787
ĠHop	9996
OF	19238
look	5460
images	17566
Ġ323	38446
Ġdick	19317
Ġreliever	48460
Ġsched	6038
Ġtattoos	29591
ĠAdv	8007
adier	38868
ihad	11166
etch	7569
Ġboss	6478
ĠChic	48854
Ġclassification	17923
Ġnarrated	46190
784	37688
Ġpoles	24971
Ġpropos	4218
Ġumb	20810
lyak	43782
Ġoccupational	34266
la	5031
Ġwearer	35958
aligned	41634
tained	4644
Wood	22911
goers	31006
idelity	23091
ratom	44616
isa	9160
rypt	6012
ulsion	15204
Ġagile	36710
Ġscor	34203
PS	3705
ĠMou	49902
ĠWorth	22301
Ġcareless	36138
respective	36990
Future	29783
noon	6357
pages	31126
claim	6604
ĠBlind	24507
ĠHungary	19562
flash	34167
ĠMonitoring	37484
Ġas	355
696	38205
Ġuniverses	44751
ivid	1699
effective	16803
Ġorganized	8389
Ġinhibition	30725
Ġparallel	10730
ett	3087
Ġproper	1774
Ġbeforehand	27091
Ġresearched	30066
Ġtru	45768
ĠEstimates	47052
normal	11265
Ġadvert	6728
Ġfif	5515
Ġupl	28996
Ġimplicated	28344
ĠPhysicians	46206
ern	1142
ĠMast	30868
Ġminim	10356
ĠApplicant	49217
plugin	33803
redibly	45779
ĠXX	21044
)/	20679
Report	19100
Ġprelim	14541
2011	9804
Ġads	9011
Ġwinger	31389
ĠBecome	31114
VALUE	39488
Ġeaten	17065
ĠHob	17073
Ġslur	40066
Ġinspir	32285
ĠFel	13937
Ġcompass	31855
Ġresc	6811
Ġworth	2861
475	32576
Ġfallacy	39104
Rh	38576
ĠFrancis	12155
Ġexact	2748
ĠMIC	35878
Ġmaneu	16136
Looking	15784
ornings	28863
Operation	32180
Ġ03	7643
ĠFranch	41705
×ķ	27072
700	9879
Ġcoarse	36076
ĠImages	5382
ĠFear	16132
Ġresident	6623
041	50049
Ġstorms	20228
Ġfits	11414
ĠLoving	39202
ĠAnders	25519
Ġheart	2612
wrap	37150
Ġcalam	35765
Ġlandscapes	32964
ĠWAY	34882
Ġcoincided	41085
Ġsuperiority	26883
markets	34162
idav	20331
Ġblocks	7021
dozen	44932
ĠDr	1583
Mic	25437
Ġslicing	49289
ĠCar	1879
cast	2701
Ġchest	7721
Ġpills	19521
Ġunit	4326
cv	33967
Ġteeth	9941
sided	22339
ĠCast	5833
Brien	20118
ibles	18764
ĠSung	29802
Ġtissues	21379
Ġhur	6990
Ġmemories	9846
film	26240
execute	41049
ĠShots	42162
Ġniece	41803
opsis	24608
ĠFlavoring	49813
Ġdesignated	11032
)'	33047
piracy	8703
254	24970
ĠSlovakia	36839
Ġfors	46931
ĠPassage	46169
OM	2662
Ġlimitless	44176
eb	1765
LED	30465
ĠPeak	23974
Ġrear	8286
Res	4965
-----	30934
ctory	25977
iping	34690
Ġbreeds	29580
Ġsails	48370
Ġtemporary	8584
abel	9608
ĠKazakh	29766
Ġperish	42531
Ġbilingual	48116
angu	2303
igate	10055
infect	27816
ĠAlic	34745
Ġbailed	47739
Ġcircular	18620
aden	40780
ĠParsons	35925
Ġfinale	19523
Ġfractures	39381
Ġnoise	7838
ĠMemphis	20522
Ġnickel	30666
Ġpremiered	44119
sur	11793
Ġshallow	19337
ĠAlc	43757
ĠMarse	45996
ĭ	233
Ġhawk	48710
ĠVoter	46226
izophren	18337
Ġions	39270
Ġconsulted	26889
inently	26528
Ġaccompanies	48159
ĠCosmos	39972
asting	9222
ĠFeldman	45498
Ġabundantly	49244
aky	15492
ideo	1651
Ġ228	29041
Ġachieve	4620
Ġchef	21221
Ġiron	6953
Ġparalle	9315
Ġphenomen	7581
ĠStory	8362
Ġfavors	23866
ARC	25793
Bull	39549
ariat	21621
ĠDexterity	40537
Ġlogistics	26355
Neal	40581
ORPG	49665
arist	34566
ĠLoop	26304
Ġdigitally	34491
efficient	16814
Ġamazingly	32513
Ġscorn	40987
living	19950
ĠUn	791
Ġamazing	4998
ĠActiv	13144
506	35638
ĠBah	13081
ĠNev	9873
Ġbackers	18917
Ġchapel	43398
Ġemptiness	49333
anic	26277
1100	42060
Ġrefresh	14976
Ġdehuman	48772
Ġrooftop	33880
Ġundergo	17777
place	5372
Ġjaws	39940
Ġneedless	44658
Ġlb	18360
Ġplugin	13877
ĠÂ·	14128
ĠÎĶ	37455
Ġdesign	1486
Ing	27682
w	86
ophys	39665
Ġchamp	24092
iano	10115
Ġshit	7510
Ġvibrations	38071
Ġnose	9686
itle	2578
Ġì	23821
views	33571
Ġblasted	26044
Ġcommodities	24392
Ġ1900	21489
587	44617
youtube	11604
ĠPowers	20668
apon	9184
umo	43712
ĠNicole	25176
Min	9452
ĠDAR	41649
è¿	32573
Ġdistributors	32612
Â©	16224
ĠPapua	46117
Ġemerged	9349
remote	47960
Ġconvent	8294
Ġinsurgency	35121
Ġlamp	20450
Js	49044
Ġeras	49089
estro	47692
+(	33747
Ġmeaningful	11570
Ġexhibited	25212
Ġconsultant	17028
308	21495
DD	16458
elvet	32667
Ġrefined	20449
ĠIO	24418
ĠDoesn	28048
ĠOh	3966
ĠProtect	21916
Pur	30026
borgh	49870
ĠBell	7459
Ġprovided	2810
Ġsour	11348
Ġcreditors	29714
Ġprovoking	45625
Ġproduces	11073
Ġshaft	18619
ĠKenneth	23632
ADA	26853
Ġairports	22600
../	40720
Ġdomestic	5928
Ġexperimental	11992
Ġfulfil	32363
Ġkillers	25542
ĠInvestigations	38111
Interface	39317
allion	48332
Strength	45027
Gro	42921
Ġinstructional	48211
Sport	42576
handedly	43919
iliary	28129
Ġcredit	3884
ĠBlvd	29402
ldom	23826
joined	46416
Ġentertainment	9739
Ġshoppers	30303
Ġsheer	15163
Ġillicit	24271
Although	7003
bles	7689
Ġcustomizable	38322
anooga	42165
Ġsixteen	27913
ĠLoch	45264
Ġcataly	36745
idae	31718
Ġjugg	24873
RNA	27204
progress	33723
Ġorbits	37015
Ġpunish	6878
Ġrituals	25797
Ġliberals	17194
Calif	19619
ĠValhalla	48762
ĠRevel	22858
ĠRomantic	49039
Ġtill	10597
Ġcluster	13946
tains	12143
ĠUt	7273
Ġvisited	8672
Ġrink	47925
Ġwhereas	9472
Ġyoung	1862
Ġchallenger	32127
Ġestablishing	15010
urous	29277
710	43147
Ġtyp	2170
Ġiceberg	34849
ĠDol	25143
KY	31159
ĠLean	45661
Ġeducating	36267
Ġcontempl	19377
Ġoccurs	8833
Pierre	36910
Ġmoney	1637
LOD	38543
Ĝ	216
ĠPHP	19599
Ġriches	35000
intention	40867
ĠMeans	28453
Ġquiz	38964
Ġaverage	2811
abling	11716
ĠTheodore	36494
Bug	25624
Ġbestselling	47791
Ġfootsteps	27146
Streamer	28696
ysical	15380
Ġdelays	16119
Ġfueling	43881
ĠHi	15902
hof	39891
Ġconsolid	14652
Ġlasted	15436
OL	3535
airy	13021
ĠIranian	10704
engeance	21364
linux	23289
deal	31769
paralleled	37859
ĠChris	5180
ilon	33576
Community	20012
ĠColin	18373
ĠNOAA	36184
ĠRehab	41640
Ġbos	37284
Ġbrain	3632
ired	1202
ĠHyp	21209
ĠNov	5267
ĠTob	13695
osuke	45914
Ġinclude	2291
cart	26674
cles	5427
acker	10735
oes	3028
Ġ164	25307
idental	35182
respected	48268
ĠDup	37916
','	41707
ĠSpray	43536
Money	26788
esome	5927
archives	48814
ia	544
Ġeru	13724
ĠComcast	21830
ĠDistrict	5665
Ġestab	2803
ĠAmeric	1019
ĠPJ	44941
ãĥ¬	24186
Ġconst	1500
Ġfrontier	27580
Ġapex	40167
Crypt	23919
London	23421
Ġfull	1336
ĠVA	13753
ĠOB	25334
Ġmarkup	41485
rex	21510
Ġmotif	32702
Ġoath	17865
Ġpainful	12132
Southern	44993
Ġpersecuted	37501
Ġple	3339
Ġpossibly	5457
Ġroast	32595
Ġne	497
igne	48946
Ġlisten	6004
Ġloyal	9112
Ġshockingly	49992
Ġstreak	15113
Ġthw	41964
ĠSuit	28871
Ġfortun	16648
ĠMount	5628
Ven	37522
ĠLTE	28519
Ġmerger	24589
meier	49468
%]	39850
ĠAppears	31254
cise	37561
Ġstiff	15175
ModLoader	24847
ĠTribunal	31189
Ġattracting	25142
TEXTURE	47648
rss	42216
Ġovere	43656
uations	6055
Te	6767
raf	32188
ĠSlay	46809
ĠWow	24755
ipher	10803
Ġpull	2834
Ġteachers	7799
Ġmisunder	16782
grave	41711
ĠAvalon	39600
Ġvalidation	21201
Ġag	556
ĠPhant	38699
ĠAUTHOR	44746
mu	30300
Ġgrinning	45702
iatrics	36549
ĠGreg	8547
1	16
Ġcarcin	28164
109	14454
ĠKhan	11356
Ġswamp	26837
Ġgloom	30338
Ġtwelve	14104
SA	4090
656	37466
ĠFreeze	34917
ĠPanel	18810
acly	39691
uve	45177
Ġrece	1407
Changes	29238
Ġtrolling	38098
Ġvaccine	12319
Ġcone	27763
writing	16502
BD	14529
Ġcompetence	31450
repre	10353
Ġmust	1276
EFF	37267
Ġround	2835
innacle	37087
Ġminors	21423
bees	41712
Ġknowledgeable	29549
Ġfoothold	48271
Ġstressing	43455
Ġunforgettable	45504
Sym	43094
ĠLauder	39212
Ġhumid	35441
Ref	8134
Liber	31199
Ġdiversity	9573
Ġlightsaber	45282
Ġtrivial	20861
Ġpoked	47320
emonic	50016
Thom	37582
uffs	18058
ĠBoll	43479
Ã¼r	25151
ĠAbove	23302
ĠRandy	21248
unless	25252
ĠTrou	22141
Ġactivists	7941
ocese	31292
Ġbreaching	46837
Ġcompassionate	32533
ĠParadise	20494
751	48365
":"	2404
ĠCould	10347
ĠEsports	48515
ushes	17237
ĠRetrieved	43024
CHO	44899
Ġcontacting	27390
Ġhydra	25039
sta	38031
Ġstacking	41228
ĠTribal	40980
Ġabsorption	24774
ĠSega	29490
Ġincomprehensible	47757
innon	45067
Ġdraws	14293
Ġblackmail	32625
Ġchassis	24587
Ġgimmick	46029
Ġvillages	15425
ĠTesla	11938
ĠAppeals	20172
515	45969
Ġ94	10048
ffic	2108
ĠâĪĴ	9746
loe	24617
raz	3247
ĠPRESIDENT	50153
ĠSocialism	40407
Ġbeach	10481
Ġclinch	45963
charging	31498
Haw	33055
flower	25547
ĠUpton	47755
Ġstole	18240
ĠStop	13707
ĠSummer	10216
ĠMartin	5780
Ġfirewall	32928
Ġcompress	27413
Ġcountless	12925
Ġdepos	12304
Ġilluminated	35162
ĠRad	5325
ĠSahara	46882
.ãĢį	43735
hemoth	34394
ricular	41001
realDonaldTrump	28024
Half	31305
ĠEngine	7117
Ġperv	48435
ĠRaw	16089
Ġtargets	6670
Ġfacilities	7291
Title	19160
================================================================	23926
ustain	19542
ĠDOE	46984
MF	49800
ixels	14810
Ġburning	9482
Ġheaven	9538
Ġdemanding	11334
Ġmountain	8598
Ġslang	39306
Ġunlikely	7485
ĠâĶľ	33468
Ġcharity	11016
internal	32538
Ġstartup	13693
ĠKah	38798
)[	38381
ĠSyn	16065
Ġunspecified	29547
ĠAvailability	43138
ItemTracker	47198
ĠGF	34977
Ġreck	12482
Form	8479
ollah	17999
Ġspecialized	16976
Ġdoomed	24312
ĠList	7343
Ġspectacular	15013
Ġlinemen	41683
Ġpuzzle	15027
Spect	49738
ĠREAL	32744
zx	42592
ĠSMS	29287
ĠJud	4794
Ġfinger	7660
Ġignition	37594
Ġsystematically	25735
Ġtrump	19997
å£«	18803
ĠSPL	46341
Ġpor	16964
Ġpursu	8238
Ġviruses	20547
ć	195
Ġimporting	33332
FN	43221
CE	5222
ĠOle	30093
ĠWage	45874
Ġsubmerged	37930
Ġspider	19230
dec	12501
twitter	6956
inance	14149
ĠSimpsons	34376
Ġflips	45971
Upon	23792
1111	26259
Ġ1982	14489
Ġbananas	35484
Ġfresh	4713
ĠDHCP	43729
Ġgrilled	34240
ethyst	44166
372	36720
Ġauto	8295
ĠCuomo	32496
ffield	31374
ĠGA	14545
AI	20185
Layer	49925
Ġindividuals	3925
ĠDirector	5890
Input	20560
osity	16579
Ġretina	45804
monster	39050
Ġslain	27029
EngineDebug	49781
ĠFolder	48107
duction	11124
itable	4674
Ġadopting	22868
Ġemancipation	48936
Ġparade	16134
Ġsubmitting	24353
escent	45470
ĠSmy	45083
WA	15543
clear	20063
empty	28920
Evil	48477
ĠPhillips	17630
Ġtyrant	47167
Ġanswering	18877
ĠPhar	48141
notice	42138
ĠConfederation	47186
ĠProbably	18578
Ġchambers	23204
DC	9697
cong	36801
ĠYour	3406
ĠDial	21269
Ġcardiovascular	21134
dominated	34475
Ġanim	2355
ĠSik	32615
ĠPressure	30980
ĠTyph	27282
ĠSweeney	47005
Ġjava	20129
Lost	31042
Weight	25844
Ġoccupations	23308
backed	17078
ĠGundam	32467
ĠIslamic	5533
ĠConservative	11132
Ġfunctionality	11244
ĠSmoke	25416
Ġsets	5621
ilings	43271
Ġinstaller	29124
ĠColumbia	9309
ocated	10533
Ġimpaired	22753
ĠWoodward	40782
Ġentrants	49117
Ġceremonial	39490
ĠWales	11769
Ġintestine	45426
518	44085
cific	7790
pattern	33279
Ġgarg	44671
Ġvigilance	49202
Ġgru	22848
ĠMissile	25350
movie	41364
arel	20318
lections	26448
hea	21632
Ġ342	44341
Ġaugmented	30259
Ġvinyl	23275
ĠFerry	42609
contact	32057
truth	35310
OW	3913
Application	23416
MG	20474
Ast	33751
Ġbatches	37830
Ġsafeguard	30925
AUT	39371
blems	22143
ithe	31470
xp	42372
ĠAtmosp	33276
Ġbesie	38128
ilateral	14796
gender	8388
keley	13490
ĠAsia	7229
Ġdeliber	8958
Ġsale	5466
774	47582
reference	35790
ĠMcConnell	18184
Ġmatter	2300
Ġsqu	2809
input	15414
ing	278
ĠFinder	42500
Ġacceleration	20309
Ġscrap	15881
advert	17904
Ġfrequencies	19998
Ġinsert	7550
Ġankles	42415
Ġparadigm	23457
Tri	14824
Environment	31441
Ġabolished	32424
omical	22545
Ġ134	22352
ĠUCH	34340
Ġcausal	26558
Ġdeclarations	31713
Ġgenes	10812
1997	21498
pres	18302
vet	16809
ĠMales	43404
Ġapparently	5729
Ġassociate	11602
Ġmasculine	27543
ĠAnswer	23998
ĠSmash	18214
Ġpointer	17562
Ġpractices	6593
Ġquarterbacks	23643
Ġmeal	9799
Ġsag	45229
Ġtweaks	26957
ĠÅ	25370
Ġmicrow	23479
umbles	25329
ĠInsert	35835
Ġwatching	4964
Ġnumerical	29052
ĠItemLevel	34448
Ġsizeable	47225
ĠObs	11086
eve	44655
110	11442
ĠCamden	43084
Ġcoins	10796
Ġhallmark	44995
Ġoverl	12893
Ġ374	49020
Ġcontradicts	40081
ĠPats	47216
Ġdidn	1422
Finally	11158
Ġeconomies	16533
internet	37675
ĠCLASS	42715
Ġgunshot	29444
ĠMelee	21058
ĠMD	10670
timeout	48678
bub	46176
agues	6120
ogly	34619
ĠCompatibility	46021
ĠLove	5896
ĠSyracuse	29141
hew	6391
Ġashamed	22461
INA	28893
Ġmal	6428
ĠRas	28513
Ġbiography	26444
Ġinequality	12791
Ġpayload	21437
Ġretri	37715
cu	27399
Ġglucose	15701
Ġseats	8632
ĠGabriel	17371
ĠChak	46620
Ġdiluted	37936
ĠToyota	20182
Ġdolphin	44136
Ġherbal	35867
Ġpoker	27101
True	17821
Ġwelcome	7062
ategory	11606
ĠGreens	18753
ĠNF	41288
Øª	41486
Ġbuggy	46542
ĠGib	12488
Ġham	8891
GROUND	46025
Ġharms	34859
437	43284
ĠRouse	44122
Ġindifferent	31655
eded	15395
Ġpersisted	33264
Ġcommented	16476
Ġguardians	32769
ĠRanger	21888
ĠSin	10884
Ġtrusted	13467
hap	45897
ĠLots	25024
Ġoutweigh	31405
Ġshoulders	12450
Ġsec	792
icide	5285
Ġrejo	30668
Ġdiam	48428
ĠAnkara	28760
TPPStreamerBot	37579
ĠWWII	27256
ĠBottle	33608
Ġpan	3425
Ġcement	20534
Ġstreams	15190
Ġfragmentation	42965
graded	21791
Ġpuls	22271
231	25667
ĠMinimum	26265
Ġsure	1654
ĠKH	40249
Ġstrawberries	36973
ling	1359
ĠPersonality	30472
Ġthreaten	16180
230	19214
ĠVaughn	47151
Ġtrem	10023
Ġcontinents	33431
eor	13492
ĠImper	28185
ĠHardy	27583
Ġunbeliev	20554
blue	17585
Ġpreceding	18148
Ġleptin	49337
missible	21597
ĠML	10373
Ġcomputer	3644
Ġshutting	25136
Ġunrest	17093
Ġ..........	39864
Ġlaptop	13224
Ġthroughout	3690
thought	28895
rary	11619
Your	7120
APH	31300
omorph	25831
printf	37435
Ġ300	5867
ĠAadhaar	47727
ĠCanaveral	49433
slice	48369
ĠDRAG	44779
Single	28008
Ġgu	915
ĠRet	4990
Ġinstruments	12834
cul	3129
ĠVin	11820
Ġlil	42280
Ġsupremacy	25888
Ġthemselves	2405
Picture	28070
Ġen	551
Ġwanting	10291
Ġmom	1995
ĠSinn	41870
Ġmiss	2051
Ğ	218
ĠGrab	25339
Touch	35211
Ġdesktop	11364
Controller	22130
ch	354
Temp	30782
ĠMothers	49673
ĠButterfly	39108
Ġcommon	2219
ĠAddiction	40187
Ġkh	44081
Ġobjects	5563
Ġlag	19470
ĠOnes	32606
Ġwritings	19336
ĠTP	24525
Why	5195
Ġperipher	18375
ĠETH	35920
ĠSeeing	25913
ĠHDMI	25499
ebted	35895
on	261
ĠHarmon	39712
add	2860
ĠBis	38045
ĠSurviv	19455
Ġorganizing	16924
Ġrumors	14923
Ġscreen	3159
ALSE	23719
Democrats	29969
ĠEngland	4492
otomy	38385
ĠReferred	47361
Ġivory	32630
Ġreleased	2716
nos	39369
ĠAc	4013
Ġpoetry	19518
where	3003
Ġproble	1369
dn	32656
kh	14636
ĠElection	14219
aba	15498
Ġhis	465
anye	23495
688	34427
Ġembattled	49118
Ġtowards	3371
Ġveterinarian	41404
23	1954
iors	12706
utenberg	19028
utra	35076
ĠDign	43674
ĠLego	33198
Ġcultivation	23089
orah	40844
ogen	6644
Web	13908
olition	50014
post	7353
ĠSymptoms	49559
ĠWeapon	13072
Ġexaminations	37305
ĠCourse	20537
Ġfurniture	13091
Ġlearners	46184
Ġharb	43560
Ġpatriotism	36994
members	30814
ĠEva	32355
ĠReady	23432
Ġcumulative	23818
Ġpav	45549
sup	37330
kill	12728
iao	13481
ĠSaudi	7420
Decre	43198
ĠMeteor	25582
ª	103
ibraries	11127
ĠShutterstock	37356
Throughout	26797
rowd	3986
Ġconfirmation	12641
Hyd	40436
valued	39728
Ġfamily	1641
upuncture	42223
Ġhar	3971
Ġamph	30139
Ġdisdain	31564
minist	2201
ĠHuffington	23807
ĠTravis	19804
ĠVog	35421
ission	1480
Ġshoe	17292
Ġwrists	38163
Ġcooling	15134
Ġ."	22135
Ġrenal	44375
Ġweap	2432
Ġ|--	44233
Ġconducts	36721
Ġresidences	45402
pha	7566
ĠDomin	11817
Ġdiscont	16141
ĠMethods	25458
Ġhoard	46960
Ġwavelength	28400
ĠDesmond	41045
ĠDrug	11095
organized	30280
Ġpostp	21826
ril	22379
ĠClin	11834
secret	21078
ĠChildhood	40992
BU	19499
ĠDI	14766
ĠDrain	36024
Sin	46200
ĠLak	30392
BUR	38926
ĠElections	24473
ĠMilk	24796
ĠMoose	44833
Hand	12885
Ġbelts	28617
Ġdefault	4277
ĠKush	18995
oun	977
ĠJem	48199
ĠElse	25974
ĠFrom	3574
ĠAlchemy	43987
Ġdiploma	41220
Ġdramas	43972
Ġmuttered	34042
Ġdevise	44668
orted	9741
772	43571
Ġodd	5629
19	1129
allow	12154
criptions	24370
inis	16661
aste	4594
Cool	34530
ĠFro	9734
ĠInher	47025
Ġlied	19837
Ġobservable	42550
Ġpat	1458
iciency	19777
ĠChristine	26088
Ġmerchant	20729
Ġreadily	14704
Ġrenters	48028
Ġtoast	27805
Ġplead	30701
Ġtougher	20516
Ġwhist	32262
BBC	33833
ĠPhilipp	9844
ĠSagan	49381
ĠMol	17958
Ġparamilitary	43542
ĠASAP	46199
ĠSeller	46555
ourney	5604
ULTS	35342
Ġacademy	21531
ĠDeng	41985
ĠLaura	16753
Ġobliged	23278
Ġtransported	18665
Asset	45869
sight	18627
Ġrepositories	38072
ĠGrounds	44201
Ġrhetorical	38505
ĠLGBTQ	25172
Ġcages	37933
analy	38200
ĠHorus	29698
Ġsubtle	11800
aspx	31740
Ġexceptional	15313
zn	47347
ĠLS	30948
ĠTowers	29031
application	31438
itudes	10455
Ġshareholder	29378
¬¼	45539
RY	18276
ĠBenjamin	14533
Ġanesthesia	49592
Ġearthqu	13198
Ġfederally	33710
Ġhyp	5328
Ġresolve	10568
278	25870
Ġinequalities	45460
iological	15071
Ġ274	39768
Ġforward	2651
Ġgl	1278
Ġcomplaint	8224
Ġprofessionals	11153
ĠBes	30837
ĠSongs	31772
Ġ146	22986
Ġchairs	18791
Ġguru	35730
Ġoverview	16700
ãĥīãĥ©ãĤ´ãĥ³	24731
Wo	49450
ĠHil	24410
iovascular	19381
Ġclosely	7173
tx	17602
It	1026
ė	211
Ġhooked	23373
Ġkeep	1394
Ġmeanwhile	15066
lo	5439
strap	26418
Ġdriven	7986
Ġopen	1280
ĠBuddhism	25932
Ġalcohol	5548
screen	9612
ĠAlex	4422
ĠKevin	7939
645	49259
ĠMineral	30000
vae	33353
ĠBet	5147
Ġbay	15489
Ġfalse	3991
Pick	31686
FORMATION	35036
ĠGear	10740
Ġsang	25889
Ħ¢	8008
ĠLaure	13826
ĠMelanie	49872
atem	23900
ĠThrones	20902
Ġleakage	47988
Ġoverwrite	49312
Ġassigning	38875
ĠSquadron	27242
60	1899
Ġseventh	14024
Ġgestation	47110
Ġevaluated	16726
Ġtighten	31833
ĠDurant	27686
ĠActions	24439
ĠSaid	23885
CONT	37815
Ġabstract	12531
Ġsued	16334
ĠIgnore	41032
Guard	24502
Head	13847
ĠGinny	37877
visory	41783
ĠPun	14944
livious	35260
ĠRonnie	40892
ĠFrenchman	46819
Ġdiscounts	25684
ĠWynne	45867
ĠBurnett	46039
Ġkil	8769
Target	21745
inence	18386
maxwell	29047
075	46396
enna	13713
ĠHoll	11806
inguishable	41726
beh	20709
Ġdespicable	47034
Ġshorthand	45883
ĠâĢĵ	784
Ġoccasions	12432
Ġtracked	18283
Ġunin	26329
git	18300
ĠFriedrich	46099
Ġinnovation	11044
2000	11024
Ġwhether	1771
Plot	43328
Ġswell	36214
ĠBeautiful	23762
Ġexperienced	5924
Ġinvisible	14836
Ġobstacle	22007
Ġfabrication	38876
ofi	39542
amic	18127
1965	45271
eur	23365
Ġfundamentals	33099
ĠSlayer	27076
POST	32782
Ġfix	4259
ĠGin	21444
Output	26410
Ġenclosure	30685
Ġmotivated	13338
Steven	28292
ious	699
ĠMavericks	36002
erm	7780
Ġgenitals	35853
aeper	28235
Ġpaternity	50064
data	7890
Ġagreement	4381
bare	49382
ĠRu	11667
ĠBastard	47209
Ġangled	48719
gary	14849
Ġdeployed	12380
Ġkn	638
Ġknocking	21500
Ġexpansions	36383
Ġpharmaceutical	18423
Ġthorn	38999
Ġdelightful	32327
Ġdamn	12270
sets	28709
latest	42861
Ġepist	34795
Ġexceeded	20672
ĠStreaming	43124
abal	44349
Ġdwindling	45215
Ġintentionally	16464
Ġwik	47145
DIV	33569
pecially	2333
Ġlifeless	46443
ĠDX	19393
ĠCare	7276
Ġpreviews	41418
Ġopting	37529
Ġoxidation	37767
ĠRamadan	37604
Ġclandestine	39903
Ġonto	4291
ĠCyrus	34305
ĠAncest	31200
íķ	47991
Ġspoke	5158
achine	20480
ĠBoyle	37619
Ġgrouping	36115
Ġremains	3793
ĠTogether	17083
Ġeagerly	30130
uming	12595
Ġstage	3800
ĠProsecutors	48198
Ġboots	14412
German	16010
uck	1347
ĠDictionary	28261
Ġhorde	43940
Ġcommun	1316
avorable	32006
Ġlimits	7095
Ġyoungster	40944
Ġtriglycer	47937
kk	28747
MB	10744
rike	8760
Ġdrifting	38193
seconds	43012
ĠLeadership	26935
acus	48628
UNCH	47461
oston	5744
Ġregimes	25879
Cand	41572
Ġpetroleum	30918
Ġpresets	46613
DJ	35028
tic	13370
ĠNiger	23731
quin	21915
Ġdys	13147
reviewed	32974
Yesterday	28065
Ġhypothesis	14078
Ġ*)	31936
Ġconnectivity	19843
Ġwrapper	29908
Ġemptied	46705
zyk	46355
rendered	26238
ĠCheap	41087
punk	30354
bind	21653
ĠGoff	44572
Ġash	12530
ĠNets	27811
ib	571
ĠGallagher	38580
Ġbund	12207
Ġmock	15290
Ġ++	19969
ĠTeams	24690
formation	1161
}.	27422
Desk	42523
adobe	36752
Ġstrategically	34235
Ġcomponents	6805
uity	14834
Ġthrottle	29976
Ġprolonged	20573
Ġclad	38186
FT	9792
higher	46503
Ġtoddlers	50142
Ġwillfully	46857
Ġathe	13366
?'"	26989
Ġcanoe	47434
ĠSpecial	6093
Ġprimaries	25430
votes	29307
ĠNug	45777
ĠNy	17735
Ġ1926	38525
Ġattitude	9408
Ġinhibitor	41704
Ġtipped	28395
627	49856
496	37747
ĠJonah	45447
CLUD	39149
Carter	49958
Dun	30128
Links	31815
ebook	16497
ruce	26524
daily	29468
token	30001
Ġconvertible	41637
Ġdecor	11705
Ġfixation	48785
OY	21414
ĠID	4522
ĠBur	5481
ĠPress	4332
Ġ_	4808
ĠKurt	20642
Ġarrangement	13888
Ġdeterior	17975
ĠCele	18909
Ġdive	15647
ĠSTL	37269
Ġdossier	34602
Ġfavoured	38931
Ġdisapproval	40174
ĠTanks	31508
Ġformer	1966
Ġinitial	4238
Ġlull	42858
Ġmanuscript	17116
ultural	8596
Ġoverdose	27357
Ġparole	25450
Ġabusing	29170
Ġproblem	1917
Ġsquad	8244
formance	10367
grab	32393
ĠSpears	45978
Ġbadly	11234
export	39344
ĠAven	15053
Ġweak	4939
ĠÃ¾	40265
hematically	46558
ĠPew	21805
load	2220
Ġdarkest	35995
Ġbuckle	44983
Ġaddition	3090
Ġpoets	39939
.,	1539
192	17477
ĠReal	6416
noxious	40591
Ġteacher	4701
Apr	13680
Ġkeyword	21179
ervative	22003
ĠHand	7157
Ġcapacitor	43212
body	2618
inition	17750
selection	49283
Ġdenominations	49735
Ġfundamentalist	42277
Ġsam	6072
ĠPremiership	47435
Ġtwisting	36373
quel	31735
ĠKy	11118
Ġmornings	31143
ĠELE	40342
ĠTale	17388
Ġplanted	18969
Ġminions	22811
Header	39681
ĠProper	45989
Ġdiscriminated	41117
ĠPf	38477
ĠPed	13457
ĠJava	7349
Balance	45866
uild	3547
ĠKepler	40294
Ġaccounted	17830
Ġens	3140
ĠFloat	48436
ĠCeltic	27986
Ġhills	18639
Ġhomepage	34940
Ġinfect	7580
Ġlocker	17355
long	6511
ĠBrussels	16445
Ġcourtyard	34941
locks	28860
uch	794
Ġcomeback	21933
Ġ[];	25787
colonial	49787
Credit	23690
ĠBond	12812
Ġdere	49408
ISH	18422
Tam	42061
including	8201
},"	9063
Cooldown	45953
ur	333
ĠCrypto	36579
ĠGmail	33662
ĠPow	14120
ĠSabb	33066
ĠLocke	34576
iple	2480
phy	6883
ĠGene	13005
Ġemergencies	36047
Ġbinds	37354
Ġfinite	27454
Ġoverhead	16965
Ġproducts	3186
IFT	32297
Ġsupported	4855
Ġoutburst	49088
Ġsynth	33549
ñ	173
ortion	5817
Latin	49022
Ġ1888	49584
Ġ525	45719
Ġintensify	47697
ĠSlowly	46484
Ġtipping	31639
ĠLDS	28377
Ġmint	21043
Ġ529	49888
Ġthat	326
Ġthrill	28576
Ġprize	11596
Ġunsc	28594
ĠÎ±	26367
Ġannexation	41329
Ġoval	41186
Ġveggies	39425
aunder	21118
ĠMori	32709
Ġinvolves	9018
Ġpoison	8764
ld	335
ĠDetails	14890
Ġboasting	40776
hy	12114
ĠMas	11066
aston	45966
genic	38516
Advertisement	4723
ĠFaces	48463
Ġdischarge	17655
Ġdotted	38745
ering	1586
ĠLI	24653
Ġinter	987
ĠAW	14356
Ġslopes	35082
ĠJudging	47024
fil	10379
making	8601
Ġspin	7906
Ġadversaries	35177
Ġunauthorized	22959
479	31714
ĠHUM	45850
Ġbackdoor	47758
Around	24472
---------	45537
Ġforfeiture	32075
Ġbreach	13694
Ġplac	21957
Ġreplaced	6928
Ġdad	9955
Ġeat	4483
Ġresponders	33339
Ġonwards	31719
ĠJenna	45377
Ġacquired	9477
Ġunders	14584
Ġlatent	41270
agate	37861
pler	20053
Ġfemin	7290
ega	26470
ĠMoves	38213
tra	9535
Ġmanners	33558
aghd	16650
Ġaverages	25694
legram	30536
ertodd	36481
Comb	20575
Ġcoined	33115
ĠKira	49103
Ġdaily	4445
Ġrepeats	29819
Ġthere	612
Ġeducation	3707
isy	13560
jj	41098
Ġjs	44804
ĠBeta	17993
Ġphosph	18431
Ġfn	24714
annon	8825
ĠValent	17284
uper	48568
ĠCounsel	21023
Ġbelievers	23142
ĠHezbollah	22871
Ġcultivated	30499
iosity	15023
Ì¶	48869
ĠThought	27522
Ġmanageable	36426
Ġspinning	19493
ovable	21985
Spider	41294
ĠInf	4806
ĠPhilly	30029
ryu	49056
)",	42501
Ġelev	7662
"}	20662
ĠEquipment	22412
anch	3702
ĠHeal	24923
avorite	19227
DEP	46162
ha	3099
ĠLearns	30667
Ġax	7877
ĠWinners	42754
Ġbrewers	36669
stantial	41321
Ġcoercive	47236
²¾	39333
ä¸ī	49011
ĠDrake	18515
Â¨	37102
Ġbounded	49948
Ġcrippling	37953
ĠIMF	25375
Ġflattering	48259
ĠPoverty	30627
ĠBenghazi	22497
Behind	34163
Too	23307
rek	37818
ĠIdeal	41765
Ġembarrass	9614
Ġglue	22749
cy	948
Ġfrightening	23101
Ġlogos	29645
Ġoffender	19595
mud	41650
Ġillegally	15572
524	48057
çľ	40367
ĠBelarus	33368
ĠHuss	35085
ĠStrategy	20561
ĠMiddle	6046
Ġconvention	9831
eteen	34026
Ġarter	30675
Ġboom	14166
Ġdiscretion	14130
idd	1638
Ġrights	2489
Ġstreets	6483
Ġpious	45979
ĠPikachu	38755
shapeshifter	33929
Ġmedieval	19955
Ġprisoners	10577
Ġundue	38826
ĠPsychiat	26357
ĠProfit	42886
roman	47119
ĠDepot	30884
ĠBethlehem	46930
Ġforeigner	44897
Ġgoalkeeper	26318
Ġwiki	22719
pole	36869
Ġseeks	12932
enemy	46970
Ġantidepressant	41897
Ġanthology	43469
Ġsupremacist	31352
asp	5126
utsche	30433
Version	14815
Adds	46245
giving	13992
æī	33699
ĠLuck	14546
Ġanarchist	26177
Ġexcessive	13181
Ġgrocer	34185
Ġinsulin	14588
Ġpropelled	40390
Ġsees	7224
Ġwelcomed	15846
ĠReduced	39963
402	32531
zero	22570
Ġ46	6337
Ġ(Â£	23068
Tor	15884
metry	41935
998	34808
ĠTAG	37801
Ġcommend	35695
gradation	26317
workshop	38067
Ġloyalty	15843
Ġoft	28639
Ġrecovered	11911
Ġplayoffs	12980
umbs	18146
Ġbullies	42677
Market	27470
Jeff	19139
Integer	46541
Ġconverted	11513
Ġsanctuary	24050
Ġaddictive	28389
Ġtrout	49411
Human	20490
Ġvitamins	29091
ĠLaunch	21225
ĠKings	10578
ĠLEG	20978
Ġflower	15061
Ġeveryone	2506
ivia	20817
gements	43547
Ask	25214
-|	22831
Ġfra	5306
maker	10297
Ġcomplying	39076
hero	11718
Ġunivers	5820
ĠMissing	25639
abortion	32396
thro	26110
_(	41052
ĠCaesar	24088
ĠRica	31656
Ġcontraction	36246
Ġabundance	20038
ĠHarper	12686
Ġhomeless	10463
Ġperceive	19973
ĠMonsanto	25769
ĠFloating	49768
Ġsubject	2426
Ġwins	7864
itch	2007
Ġmedals	28057
ĠBACK	28767
iera	41976
ĠBunker	44761
Ġspecializing	40847
stasy	31695
Ġashes	29914
ers	364
Fast	22968
ĠSOS	42707
ĠWal	6445
Ġbaseball	9283
Ġadd	751
686	33808
Ġdiscount	9780
Ġcultural	6467
Ġincrement	18703
Ġmanpower	44803
Ġremnants	30468
116	18298
Ġkitchen	9592
anders	45070
owners	15605
Ġrestrict	4239
ogens	26612
Ġlambda	37456
Ã«	26689
ĠDevon	36889
ĠNum	31835
ĠASC	25400
ĠPOWER	40295
ĠFALSE	26563
ĠStack	23881
Ġcontacts	13961
ĠAirl	16016
fall	7207
Ġelementary	19823
Ġpolarized	46469
Ġmagnets	37446
786	46302
ilan	38239
ynchronous	31301
ĠXen	21173
Ġredirected	45158
Ġunknow	39472
ĠÃ	6184
ĠCous	27456
Ġâ	2343
Everybody	28172
ĠMexico	5828
Ġlegalization	23050
Ak	33901
wreck	39238
Ġ<-	24293
ĠUnderworld	36198
Ġlobbyist	35196
Ġmeteor	19999
Technical	45638
cutting	29753
2007	12726
ĠStro	30183
ĠHapp	18321
Ġfilms	7328
igun	50118
ĠClassical	43680
Ġmarry	12479
Ġinsist	16361
Ġme	502
Ġmisled	38796
Ġspots	10222
ĠStaff	9983
https	5450
Ġ808	41241
ĠAcad	7116
ĠAffect	36931
ĠHPV	32395
ĠPagan	46856
ĠRut	21214
ĠWriters	37732
Ġoil	3056
Ġsle	3133
Ġhairc	37363
Ġrobotic	25810
Ġeven	772
toggle	44256
Manager	13511
lan	9620
ĠOU	47070
Ġcredits	10824
ĠRazor	36065
Ġpermitting	29256
ĠMaritime	45411
ĠJackets	41324
671	46250
Ġcatchy	46124
Political	35443
ĠLegs	49379
Ġevapor	28959
Ġpee	32638
Ġ<<	9959
Ġrod	15299
Ġ194	30483
Container	29869
ĠGateway	29916
Sales	44490
enh	16550
uggage	29672
Lv	29507
ĠSports	7092
ĠYOUR	16592
Ġactual	4036
------	23031
Ġautism	15998
uctions	20847
Ġcoordinating	35449
âĢĶ-	44839
Ġdiscussions	9984
ĠCommerce	16127
Ġdaunting	30496
Ġfirsthand	37318
Ġgovernment	1230
Ġinserts	42220
Ġnephew	26301
Ġnoticing	28107
1001	47705
Ġnets	31720
Pict	21300
ĠPuppet	34447
Ġoriginate	39779
Ġsensible	20586
Ġspa	41900
Ġtraded	14018
Ġviews	5009
fur	38916
Ġevid	25568
ĠShip	16656
Ġconsultations	42052
ocket	5459
OU	2606
ĠChristians	9316
ĠExplos	33022
ĠAllen	9659
ĠToggle	34098
becca	20627
ĠTreasurer	45399
Ġcontinuous	12948
ara	3301
Ġideological	15735
ĠDuty	18104
ippers	16415
ĠIncarnation	47881
Ġaspire	42926
Ġoptics	36237
Ġtransit	11168
ĠPromise	34920
ĠZar	28193
ĠRyder	40238
ĠCowboy	48706
smart	27004
ĠSTATES	47023
Ġemerge	14740
itches	9249
Ġconvergence	40826
larg	15521
ĠMal	4434
Ġculturally	30573
Ġ($)	45491
ĠGott	39451
Ġsneakers	42649
Nev	43555
Ġprost	11825
ĠBarth	44414
Arch	19895
Ġdiscussion	5114
ĠFired	46223
Ġpartisan	19666
ĠJulie	21946
Ġperipheral	25514
Ġpromote	7719
ãģ®å	15474
Ġtorture	11543
ĠGent	27391
akra	38004
ĠRod	6882
528	49351
ĠSustainable	45276
Ġbuffer	11876
Ġfirearms	12594
Sen	10445
ĠMan	1869
Ġ47	6298
ĠReign	29297
Hz	7399
ive	425
Discuss	48873
undrum	46859
ĠLet	3914
ĠRings	26028
cling	8493
istries	32995
agnar	30475
ilies	3922
ĠTalking	33445
Ġbehavioural	41672
ĠJason	8982
Ġchoice	3572
Ġdefeating	21320
mentation	14374
Ġbackend	30203
Ġmouth	5422
Ġpreparations	21518
bre	4679
azeera	28535
Japanese	25324
Ġpsychiat	19820
Ġsigns	5895
Ġsquash	34613
01	486
Twe	32665
Ġshar	13986
Ġetc	3503
Beginning	45198
leneck	43163
ĠChop	40159
ĠManafort	26351
Ġfootwear	43463
ĠRamirez	34783
Ġconquering	49977
coni	45774
Ġinnings	16267
Ġnutritional	24000
Ġpist	11714
Ġprescribe	32651
produced	32783
ipp	3974
Ġprosecutions	36582
Ġsexist	24651
Ġdating	10691
Ġspark	9009
Ġterms	2846
seekers	47971
ĠGentleman	42112
Own	23858
ĠVoid	18331
Ġanew	44951
Ġexemplary	40690
Ġintrinsically	48676
Ġsnipers	50238
bowl	36859
ati	7246
UID	27586
ĠAbby	49220
ĠCAL	33290
ĠBeasts	37055
ĠOC	24775
Ġdog	3290
Ġhack	8156
lp	34431
chedel	24015
majority	35839
ĠProtoss	41849
ĠKiw	40011
1080	24045
eele	26213
ĠAthe	27751
ĠGift	21208
ĠOrient	35275
ĠHolocaust	18661
Ġban	3958
Ġcontrols	6973
Ġconvinced	9431
ĠCody	27035
Ġgenital	24678
Ġreinforces	41125
ĠClever	42486
retched	27528
Ġmesh	19609
Ġtheorist	46410
Ġinsepar	50140
Collins	49645
-.	34507
alling	9221
ĠIs	1148
....	1106
Ġamuse	26072
ĠNovember	3389
ĠTwins	29640
Ġdowntown	9436
ĠArrows	43946
ĠGladiator	41633
auer	16261
Ġmotives	21508
Ġintelligent	12661
choes	23001
Ġ312	34465
é»Ĵ	44112
NR	24723
Ġmemes	32905
Choose	31851
ĠIraqi	10420
Ġaccessible	9857
Ġkillings	17709
rupal	34585
Ġbearer	49508
Ġbucks	24780
Ġ178	27368
Ġregulatory	11344
ĠJunior	20000
ĠZach	18825
ĠEl	2574
ocial	9402
Ġonward	38232
Ġshielded	45153
whe	12491
Cast	19248
Ġmu	38779
Ġprey	15974
tyard	30308
Ġ-->	14610
ĠPulse	25062
ĠGes	45371
Ġcuriously	43211
EMA	27630
Ġmessing	37241
OWN	14165
Ġresidents	5085
Ġinsertion	36075
avin	20637
Ġlions	31420
Ġpriesthood	33060
Ġrapper	25670
Ġspokes	4212
ĠFred	8559
"âĢ¦	24426
ĠConquer	40963
Ġabruptly	25891
Ġenactment	28547
Ġexposed	7362
Ġseismic	37463
cloud	17721
Kh	33155
Ġreplacement	9014
ĠFew	20463
ĠEconomy	18493
Ġeffortlessly	42241
Liberal	46650
ĠBitcoins	34983
Ġrichness	46792
Press	13800
Ġhoop	44792
Ġmighty	18680
rity	10138
Ġstatewide	23605
Ġwithdrew	25518
why	22850
Ġlash	46967
ĠDisability	46454
Ġfaded	24887
King	15708
onymous	6704
ĠDuc	24165
cl	565
Ġoffering	6011
Ġdex	36017
Ġunderwear	26170
ĠCalgary	17842
Ġheavenly	32271
Ġmammals	23426
Hart	44719
crew	42276
Domin	43417
Ġobserved	6515
Ġroutines	31878
ĠDhabi	43941
ĠTerritories	42354
verend	37713
ĠStorage	20514
ĠNig	13732
ateur	15093
Ġval	1188
acio	48711
Intern	15865
actually	37739
uff	1648
ĠBinding	38904
ĠScholar	11713
Ġinternational	3230
pan	6839
Ġcheat	22705
Ġdissu	46066
advertisement	45876
ĠJOHN	39263
ãĤĮ	39258
Ġtangled	41431
ĠInstagram	10767
Ġcould	714
Ġgenetic	8513
aby	3930
505	31654
ĠDesk	39246
ĠOCD	43699
Ġwarming	9917
ĠHearthstone	38615
ĠMs	6997
Ġinvaluable	30438
Ġ112	13539
Ġpand	19798
Ġconnections	8787
Ġshare	2648
ĠSCH	22374
ĠCage	27577
ODUCT	28644
ĠGrace	16156
ĠResort	28345
managed	39935
endar	9239
anmar	21708
icons	34280
ĠHard	6912
ITAL	40579
ĠGrowing	37487
hook	25480
Ġeject	22189
orio	40974
217	24591
Activ	25526
Ġexplained	4893
Ġfascism	31037
Ġoccupant	47742
Ġpounding	33919
Ġwhistleblowers	46147
Ġexperience	1998
asia	23218
ĠCapture	31793
_-	22955
ĠProv	7518
inion	23971
Ġinherent	11519
Ġsold	2702
Bound	49646
ĠMIL	31515
56	3980
ĠHallow	15400
stocks	29522
Ġsymbolic	18975
Ġuses	3544
dry	39140
ĠGreeks	25059
Ġpossesses	22194
Authent	47649
Ġjustification	17734
Ġtenets	43820
Ġextremists	20674
Ġtheolog	37275
Ġcomm	725
Ġearliest	14555
ZZ	30148
ĠFein	45711
Ġengagement	12352
Ġlegalized	33071
ĠAD	5984
Ãª	25792
inational	26201
Ġjammed	45479
Rob	14350
Review	14832
ĠCraw	20177
level	5715
Ġinquire	38212
Ġpeople	661
Ġç¥ŀ	47432
Yeah	10995
Ġadm	6178
meat	41495
gments	11726
Las	46898
iga	13827
Ġbought	5839
ĠSharks	31547
Ġhappy	3772
Ġnostalgic	40459
ĠHaley	30646
Ġnum	997
Ġfurnish	34076
Ġpolitics	4819
Ġsuggest	1950
Ġthese	777
Ġsavings	10653
Ġmog	32985
Ġdracon	27733
ĠApproximately	40453
Ġcandidate	4540
Ġcounterterrorism	36573
Ġinterf	9556
ĠReborn	37612
ĠEisen	22633
Ġar	610
Ġestimation	31850
ira	8704
Ġimplying	30253
ĠAct	2191
Ġforehead	22645
Ġranks	9803
Coun	31053
Ġswitches	18225
uesday	3322
Ġaccumulation	24106
Ġblot	43182
ĠWheeler	27512
ĠVest	39034
Ġforgiven	32350
Ġstricter	36602
Ġversions	6300
Ġprevailed	34429
ĠTay	25569
adal	31682
Ġreception	16307
Ġmessy	24097
Ġphysicists	37898
Work	12468
Ġseriousness	32095
Ġtotally	6635
Ġmomentarily	40957
Ġlocale	36693
dep	10378
ĠHolder	24210
Ġtattoo	18785
Ġtaxi	17536
flow	11125
immers	36904
Destroy	49174
ISON	39960
lift	26282
upt	37623
ĠRaphael	37464
Ġemission	25592
Ġrationale	25738
ovsky	29716
etric	19482
uration	3924
drm	49007
ĠReincarnated	15685
905	44928
Commun	30813
Ġrom	9267
ĠCornwall	45294
Ġchurch	4928
ATE	6158
ĠEnc	14711
ĠCS	9429
arbon	42084
ĠCFR	38233
atellite	26493
ophob	13253
ant	415
ĠBert	22108
ĠNottingham	39802
Ġappalling	34130
Ġleaping	45583
Ġlooked	3114
Ġstoryline	22992
ATED	11617
ãĤ¢ãĥ«	47794
ĠReplay	23635
Ġundes	27858
When	2215
Ġhype	20606
ossible	4733
Ġgrunt	45836
Disable	48893
Ġdeem	32435
Ġopportun	2755
Ġdevoid	34065
ase	589
ĠWallet	37249
Ġdent	18794
Ġsad	6507
veyard	21563
Ġmud	17492
enture	36697
Ġpot	1787
acons	37256
Total	14957
skin	20407
Ġinjuring	34361
Ġor	393
IFIC	30643
ĠBurns	23592
Ġunf	3684
Ġparticipates	49567
Max	11518
ãĥĥãĥĪ	35799
Ġ251	34489
arations	24355
ĠShard	32822
Ġnec	27576
Ġsounds	5238
Ġmicroscope	36396
Exactly	47173
ule	2261
Ġrecall	10014
assad	30178
Ġweekends	21511
ĠMeadows	39943
ĠAri	6069
Ġedited	13012
Ġanalogy	23970
ĠFish	13388
ĠGiant	17384
ĠGuardian	8283
Ġremind	7101
Ġanthem	24577
Ġsatisfy	15959
Ġanger	8993
ĠRPM	32381
Brew	44029
Ġpreview	12714
Ġmonuments	28814
Ġoutstanding	11660
aned	22739
wich	11451
Ġ1988	12122
ĠGi	8118
ĠLabs	23500
Ġartific	29829
Ġjug	45808
ĠFoster	18489
Ġbeef	12023
322	37283
93	6052
ĠNash	13950
ĠHugo	25930
052	37841
prop	22930
liquid	39250
ĠGarr	46619
ĠPract	13672
ĠAlexa	34630
ĠSora	42359
ALTH	40818
787	41019
essa	21411
ĠWilderness	40432
ĠSeraph	42771
Ġbul	4807
Ġphysique	48226
Ġfatigue	18787
Ġsoldiers	5795
ickets	15970
ĠSylvia	45425
ĠDodge	26048
ĠSpencer	15971
Ġhateful	30367
0	15
B	33
Ġpedd	36145
csv	40664
Ġpositives	38548
Ġreaders	7183
Ġseam	15787
assembly	41873
ĠHeroic	34364
ĠINS	29194
Ġjudging	22989
Ġimm	2296
leaning	25909
Ġhurled	43186
Â·	9129
Ġvest	19750
Gamer	33648
ĠClassic	13449
Ġrehabilitation	23668
Ġdilemma	26566
cill	20346
Ba	34458
Ġupfront	36562
Ġled	2957
Type	6030
ĠPeyton	35228
Ġremote	6569
ading	4980
Ġcancel	14241
Ġpotassium	33156
Folder	41092
Mode	19076
ĠGP	14714
ices	1063
ĠLAW	38675
ĠWem	45300
Ġholster	43604
Ġfrig	36780
Ġrenowned	22140
ĠCharm	30225
Ġaside	7263
Ġoverwhelm	43334
Ġported	49702
Ġsage	35021
ĠOsaka	42429
Ġshelf	18316
Ġresolution	6323
comfort	21598
urden	42568
Ġsignings	42113
Ġsurprises	24072
eeds	39642
Ġcigar	24518
Pear	46262
ifa	19215
Ġcorporate	6355
Ġequal	4961
gmail	14816
ĠFalcons	21026
Lim	19352
isd	9409
ĠTai	11144
vable	23765
Pop	16979
ĠO	440
rina	22267
ĠInstitutes	33656
1981	35411
ĠWalt	18935
ĠDMCA	49648
ĠEthiopia	31592
Ġvenue	14359
Men	10418
èª	45739
ĠCasino	32802
Ġcomplained	13832
ĠPlanned	18451
Ġjams	44147
Less	22058
Ġheroism	48661
hon	24130
Ġ32	3933
burg	7423
Local	14565
System	11964
micro	24055
ĠPon	50210
Ġanimate	43828
bo	2127
Ġmartyr	28009
castle	18676
oglu	49006
ones	1952
ĠWonder	12902
Ġpiv	16767
Ġiterator	41313
Ġsacrific	13751
Ġglance	16086
Ġoutsider	30545
Ġscrib	44661
Ġrabbits	33043
pees	42623
Ġchapters	15754
Ġcook	4255
651	40639
ĠEssex	38307
ĠShan	14866
Ġdisrespectful	41987
Ġinterrupted	19072
Ġank	16553
boats	46058
Ġhomes	5682
Ġmerits	21692
ĠPresent	21662
ĠSlaughter	41148
Ġrefute	45071
Ġentry	5726
Ġ1865	47801
Na	26705
stand	1481
Ġreplicate	24340
)</	36475
Ġcapsule	27855
ĠBF	41646
Ġtransferring	26140
ĠEzekiel	48742
NVIDIA	38021
performance	26585
ĠLeaving	38068
ars	945
footed	43127
ĠAbandon	41105
ĠMil	4460
iltration	36055
velop	1091
ĠKa	11611
Ġsci	20681
Ġundeniably	47589
evaluate	49786
ĠCohen	17154
Ġestim	3959
ĠLuxem	29017
tenance	8219
Ġdisposition	24665
Side	24819
ĠChennai	47678
val	2100
Ġhosted	12007
820	41739
ient	1153
ĠDeV	29619
Ġworms	29174
ĠEconomics	18963
heit	29361
ãĥīãĥ©	19073
Ġovershadowed	43861
Ġstudy	2050
Ġlegs	7405
plet	37069
ĠCharter	23006
rics	10466
33	2091
ĠCrowd	29452
ĠEthan	28926
ben	11722
ographical	17046
rawling	18771
Ġcausation	46850
ifax	26590
Ġtiles	19867
abulary	22528
Ġpokemon	43962
management	27604
Ġexc	2859
ĠSporting	31790
ptoms	35533
vell	29333
Ġedits	31671
hill	12639
pm	4426
Ġsan	5336
Cor	10606
Ġmapping	16855
aphael	34889
ĠFight	10480
Ġsight	6504
Ġwhirlwind	49676
Ġspecify	11986
connect	8443
stem	927
Ġ$\	39280
âĸĳ	22110
Pin	28348
ĠAware	32828
ĠIslamabad	36878
ĠUrs	37935
Ġ1925	36864
Ġcont	542
ĠGold	3561
Ġcredentials	18031
Ġdissertation	46793
.$	48082
Ġexclaimed	33552
Ġexempt	13068
Ġphysicist	33013
Ġrobot	9379
ĠFrontier	23281
Ġcelebr	4681
ĠScandinav	29410
ĠBusiness	7320
Ġmerch	12487
Ġsynergy	42193
ellow	5037
ĠArmored	29347
Ġarrived	5284
Ġmanufactures	46306
Ġshareholders	19195
Ġstock	4283
ĠMarch	2805
Ġtrending	29056
vice	28281
,''	14004
Ġinstitutions	6712
ĠUl	16322
ther	490
Ġmelodies	47077
Ġpip	7347
Ð¸	18849
ĠHick	42441
Ġseveral	1811
Ġtelescopes	42067
tin	43701
ados	22484
sect	8831
ĠFeng	18164
category	22872
Ġ4000	30123
ĠLynn	24868
Ġrelevant	5981
ĠBucs	44099
issors	32555
painted	47351
ĠSri	20872
Ġnoble	15581
Record	23739
ĠLR	37491
ietal	21587
ĠAh	7900
ĠVeh	15118
Ġtweet	6126
enburg	37036
Ġrenegoti	48312
ĠDirective	34736
Gameplay	43241
Ġsand	6450
ĠDied	34288
ĠMage	17323
Ġunbeaten	48798
Ġfuels	18017
usb	43319
ĠNau	50071
Ġcolleague	16008
iddled	34897
Ġaltering	29057
Ġwebcam	49823
Ġincidentally	42258
bleacher	47975
Ġgardens	25476
players	32399
flight	22560
ists	1023
Ġoccas	7782
]:	5974
Ġchicks	43803
ĠFletcher	31942
limited	10698
Ġforeclosure	41400
Ġ",	33172
Ġie	37941
Ġmisunderstand	39653
eric	35626
Ġmunicip	11076
325	26582
ĠBak	17466
Ġfood	2057
ĠCrate	37504
cler	22902
ringe	38229
inous	29823
ei	20295
Economic	48307
ogenic	15147
ĠGrav	32599
tesque	37422
ĠLikes	46077
ĠRican	44459
").	11074
Ġ195	24793
Ġbackdrop	26373
Ġdisplaced	20085
Ġfluoride	40311
Ġlast	938
LP	19930
ĠCommonwealth	17165
Ġgut	12500
Ġphones	9512
Ġregex	40364
jun	29741
Ġpracticable	44791
Ġcounties	14683
Ġsch	5513
ATT	17139
oks	28194
Ġruined	20484
Ġop	1034
Ġsetting	4634
Ġtomorrow	9439
ASH	11211
ĠHorizon	22776
Ġii	21065
Ġquarry	47780
ĠRutgers	30595
ĠCelestial	37231
Ġreverted	50239
rait	12907
ĠBj	34254
Ġwake	7765
Tax	27017
Ġshifts	15381
Compare	41488
isl	3044
gged	11178
Ġusb	38551
+.	27613
Tab	33349
Ġmulti	5021
272	29807
winter	40078
STAR	46678
Ġnavigate	16500
Ġbasket	7988
chest	46713
iblical	16897
iterranean	19012
ĠRob	3851
ĠRobots	39096
Overall	16350
Rod	27917
flation	33521
ATES	29462
inate	4559
ĠAlleg	26326
myra	49216
ĠGeo	32960
ĠStacy	49523
itute	3678
ĠValerie	45603
ĠJoh	16053
Ġdescribe	6901
Ġabbre	28873
Ġca	1275
ĠConstant	20217
Ġexploitation	17238
Ġintrig	13250
Ġmash	30407
Ġparamed	34581
Ġster	12504
Ġsweater	35685
Ġteleportation	48285
rot	10599
Ġrevolt	27360
Ġroam	35563
ĠPAX	49742
ĠGrow	26936
ĠSea	6896
ĠGDDR	50092
ĠBlack	2619
Ġpositions	6116
Ġassemblies	37398
Ġ("	5855
ĠMUS	39484
Ġanalyses	13523
Ġforbids	44114
oons	13022
713	50055
ĠDecoder	34580
Ġfracturing	48690
park	20928
ĠHoover	31865
ĠSebastian	26190
Ġtorque	26415
ĠTranslation	33322
ĠNickel	38398
Turn	17278
Ġemitting	48143
Ġindependence	10404
Ġinev	9026
Animal	40002
ĠGM	6951
Ġenrichment	36513
Ġmetaph	13738
ĠLane	15016
Ġequals	21767
Ġstored	8574
Ġworsened	44838
Ġironically	32532
Ġlobbyists	26637
Ġzeal	27689
Ġmaterials	5696
Office	27743
ĠBirmingham	18899
ĠBush	5511
ĠCond	9724
ĠBulgaria	27902
ĠOctober	3267
-$	22799
Ġatten	31919
ĠDeclaration	24720
Ġflourish	31147
ĠInsight	39917
ĠBolshevik	48789
ãĤ¡	25362
Ġinvites	27671
Ġopioids	39032
Ġphysically	10170
Ġrationality	45627
oteric	38571
rible	5547
ullivan	16040
ĠMik	17722
ĠBoat	30828
ĠTrails	40076
Ju	33018
Ġcorrupt	10622
Ġmasse	41869
Ġmuff	27563
Ġinterchange	26478
ĠCho	10031
Ġindicate	7603
Ġride	6594
Ġhaun	17791
Ġshack	32772
Ġliquor	20030
Often	37288
Ġadhesive	43608
k	74
types	19199
ĠDug	27436
Ġmoot	41264
Ġshun	32814
Ġproperty	3119
Ġsignatures	17239
Ġtimeout	26827
Ġpage	2443
Ġplant	4618
oz	8590
Ġwaived	28170
ĠGomez	33231
shaped	16760
ingo	32735
Ġnecks	44184
ĠLaurie	40811
ĠMormon	13164
ĠXL	16276
Ġplag	19640
oxy	23536
she	7091
Ġfisheries	41440
acer	11736
Ġexhibitions	48130
ĠStaten	46034
Remote	36510
Ġpower	1176
Ġreligion	5737
Ġunderdog	44288
ĠPierce	23023
ĠKardashian	48099
corruption	46260
Ġthreatens	20201
Ġunheard	36511
Ġsubjug	43629
Ġunsuspecting	41975
Ġ383	49814
Ġrecomb	44759
Ġcontinuity	24216
ĠThro	47854
Ġbaseline	14805
accept	13635
";	8172
cpu	36166
Ġalot	43158
Ġencompasses	38932
Ġnominations	30994
ĠHuang	31663
oday	4348
Ġservings	43096
San	15017
inary	3219
ĠStability	47865
Ġgrief	18522
ĠRestaurant	26078
Ġdiscover	7073
ĠHispanics	30714
Ġcenturies	10675
ARD	9795
Ġlooph	24307
ĠWith	2080
zie	49746
Ã¨	14064
opher	8803
ĠMAD	45878
oj	13210
ĠFISA	44073
Mir	27453
ĠCONC	39962
Ġbanter	46420
HL	6581
Ġ670	48136
ory	652
ĠRohing	32571
ĠBritain	5491
Mand	49846
ĠGw	39661
ĠLW	38492
Ġbodily	20734
Ġmethane	25006
ĠNeighborhood	37914
Ġprofits	10177
course	17319
hetics	24965
interface	39994
Mult	15205
kish	31501
Ġaccountability	18241
Ġapologizing	47401
Ġobjectives	15221
Ġpassed	3804
Offline	28657
Ġworshipped	46204
ĠMalone	40735
Calling	48593
Ġaftermath	16280
Ġtransitions	27188
ĠTant	44116
Ġ{"	19779
Ġbosses	17317
Thor	46765
ĠChemistry	27867
liction	41101
lish	1836
uel	2731
ĠANN	40126
ĠKub	24921
isal	28456
ĠOpportun	24922
ĠFunctions	40480
ĠPoc	39375
ĠCinnamon	48932
Ġgigg	30442
Ġissues	2428
urrence	33928
Ġathletics	35691
ĠEstimated	47737
Ġparadox	22226
Ġgasped	45236
ĠHelpful	21656
Property	21746
insk	35803
rem	2787
Ġrecession	16457
Ġsatur	17373
FP	5837
Ġeyes	2951
Ġvariants	17670
oqu	22696
Ġdisturbances	38622
Ch	1925
ally	453
morning	43911
heard	23636
ĠArray	15690
Ġenlarg	26537
Ġprovides	3769
ĠScholars	26381
ĠTS	26136
Ġfins	42080
Ġoffence	14148
Ġaeros	41376
cript	6519
Ġversus	9051
Ġcomposite	24185
Ġ)))	47282
Ġlady	10846
Ġlibel	40739
Ġrelay	24248
western	14197
ĠRagnar	32797
Ġskysc	37885
mone	47122
ĠUSA	4916
termination	41382
ĠCha	20703
Ġcreeps	49100
ĠÃľ	49363
engu	13561
763	49641
ĠAtkins	47545
ĠENTER	46962
angler	49910
ĠJavascript	24711
part	3911
ĠPrimordial	44174
Ġdecide	5409
safety	44708
ĠYog	31604
ĠRaz	38058
ĠMovie	15875
Ġdetain	17017
Ġol	25776
Law	16966
ione	7935
Ġinflic	30333
Ġprinters	34654
Ġsnapped	20821
scient	25346
CNN	18474
ĠAlibaba	41992
ĠKimberly	48685
Ġ540	38190
Ġsucks	22523
Ġ----	13498
Ġthreaded	40945
ursor	21471
Ġallegation	24389
andem	30025
ĠGut	27549
Ġpatronage	49753
ĠDuck	21867
Ġticket	7846
Ġdummy	31548
module	21412
Ġ292	41569
Ġglaring	29097
Ġcredential	49920
Ġlighting	12019
120	10232
Ġdisciplinary	24737
Ġmidday	47168
Ġterminating	47985
ĠCDC	20434
ĠIcon	26544
Ġdisagreed	27884
Ġpark	3952
ģ	223
save	21928
Ġdeficits	22729
Ġ+=	15853
Ġhash	12234
anim	11227
reader	46862
ikawa	40398
ĠNorway	15238
Ġplumbing	40199
Ġsleeves	27409
Ġsubparagraph	24077
Ġentirely	5000
temp	29510
ĠTulsa	36443
border	20192
293	31675
Ġcoupling	40204
Ġcontainment	37149
Ġ1700	35665
ĠBarb	10593
ogram	21857
ĠBeast	10984
ĠPLEASE	37795
Ġdusk	46166
otrop	34248
Ġcolumn	5721
i	72
Ġmarginally	44108
Ġregret	13721
Ġsorely	50103
ĠLine	6910
rat	10366
Ġmismatch	46318
Ġtheorem	44728
alach	33786
ĠReturning	42882
ĠHarding	45732
Ġappendix	43600
Ġgene	9779
ucked	17758
ĠCrazy	19932
ĠFed	10169
icent	36712
ĠOrioles	32907
418	39667
lease	1274
mount	14948
Ġfunnel	28214
Ġinterference	14517
Ġmission	4365
Ġtemptation	29062
Ġdetermined	5295
ĠPlymouth	42125
Ġsacrificing	32698
ĠObst	46378
ĠFly	13575
t	83
Ġinflicted	27010
Ġmyst	21619
Ġbricks	28902
Ġseason	1622
Ġadam	23197
ĠNaj	37135
coon	20912
Ġapologized	22893
Ġselection	6356
Ġprecincts	47564
Ġsodium	21072
ĠMall	16618
ipers	29288
Ġworst	5290
ĠType	5994
ĠEverywhere	48201
ĠThursday	3635
Ġdrinks	11758
owder	34656
Ġelectronics	17075
Ġemer	3165
Ġsket	28427
nar	23955
Ds	30832
Ġ2050	32215
Ġ451	49356
Ġ73	8854
ĠDri	5809
Ġeval	5418
Ġserves	9179
gr	2164
Ġshore	15191
ĠRun	5660
ecd	21142
ĠISP	33086
Ġclarify	18282
ĠCatalog	44515
umpy	32152
Ġparaph	38624
MY	26708
Ùħ	25405
Ġcheaper	11721
Ġimitation	40260
Ġunique	3748
ĠLicense	13789
onday	3204
two	11545
Ġcompromised	19066
Ġentrepreneur	19500
Malley	33776
Â®	7461
ĠOnly	5514
Ġhorrifying	31906
Ġcust	9378
rate	4873
Ġmarch	9960
Ġsoutheastern	35618
Professional	49138
ĠPrompt	45965
Ġenters	14170
Ġsulf	22443
ras	8847
duct	2359
ĠRealms	35974
ĠTune	42587
Iraq	31206
Ġharassing	34110
ESPN	31730
ttes	13036
abama	8809
ĠShelley	46854
Ġsupports	6971
Ġinquiry	12069
Ġstrange	6283
rots	24744
ahah	36225
aceae	48319
github	12567
rys	19753
Ġ&	1222
GREEN	43016
assets	19668
ĠSSD	21252
ĠAfgh	44238
Ġliar	31866
ĠGreene	28132
ĠAlmost	16699
ĠDreams	21527
ĠGibraltar	47403
OUT	12425
connection	38659
--+	44785
Ġpools	20354
ĠRomero	38623
Ġpopulation	3265
Ġpeac	41961
Ġowned	6898
Ġuncon	21254
Ġshitty	32574
Ġ\"	19990
ĠAn	1052
find	19796
ai	1872
ÂłÂł	4603
NYSE	49430
046	45438
ĠSuff	24974
Ġlitres	49622
better	27903
ĠVenezuelan	34497
ĠProcedure	34997
inement	21828
ĠBoy	6387
runtime	43282
ĠReloaded	33114
Trump	6170
Ġatmospheric	20938
iness	1272
ĠShiv	43305
Ġbasil	37792
Ġbeginnings	33875
Ġvehemently	42327
ĸļ	31204
Ġcostly	16378
Ġflashy	43115
ĠLiving	13728
Ġbribe	40879
Professor	25031
ĠTOTAL	36247
Ġpasser	30286
bp	46583
Ġbody	1767
Ġsilence	9550
ĠFrog	28328
arez	19655
Ġboxer	38660
itored	20026
Ġpillow	28774
02	2999
ĠDar	7491
ĠDS	17400
Ġwhere	810
ô	176
-->	46904
Xi	42528
ĠWHERE	33411
ĠEverest	41336
Ġafraid	7787
ĠLos	5401
Ġlaced	49699
ĠCheese	27601
ĠOakland	12369
Ġthereof	15370
strong	11576
Split	41205
ĠJaw	40863
Pic	39507
Â§	16273
Ġ22	2534
Ġchatting	32046
4	19
DW	42955
Ġdan	46078
Ġdrinkers	40527
Ġbeliever	29546
Transform	41762
ancer	8250
proven	42874
Ev	15200
buy	17846
Ġcalled	1444
Ġideologically	49764
Ġdeduct	18777
Ġparanoia	34370
Ġdeveloper	8517
Ġscreenshots	23322
ĠLuthor	47506
Ġsizing	47016
endor	18738
Ġ1977	15589
ĠAlf	17136
ĠChimera	38399
ĠPre	3771
Ġdepends	8338
Ġkit	6220
phen	31024
finished	43952
Ġprogressing	37335
ĠTyler	14886
Ġspree	37386
iff	733
pen	3617
usually	23073
154	21526
bral	24427
oops	44860
utes	1769
392	32321
Even	6104
ĠGamb	33330
Ġconnection	4637
Ġthemed	31892
Friday	20610
errilla	31859
anca	42124
ĠStatements	44936
Ġexpectancy	29098
Ġfou	46287
Ġbribes	39926
Ġtrail	8025
Ġassimil	36659
/**	35343
cair	37155
Ġrespond	3031
39	2670
ments	902
marriage	45394
Ġantit	26092
zbek	40413
Ġprophets	30687
Ġunequal	37334
ĠChandler	28346
Ġdependency	20203
ĠNeck	34726
Tes	36504
ossal	33582
robat	40655
ĠAttributes	49213
ĠKyl	39859
Ġsubstances	15938
Ġgoddamn	43546
Q	48
TAG	42197
Ġcopper	15317
ĠTuc	33370
615	47007
glers	33641
ongo	25162
ĠJungle	26411
hub	40140
ĠYourself	42132
Ġcube	23441
ĠLearning	18252
Ġenthusiasm	17131
ĠUkrainians	49114
Ġforwarded	28308
ob	672
acers	49908
Proxy	44148
lay	10724
union	24592
ĠPete	17542
ĠSpur	47788
Toy	48236
ĠCory	28785
ĠHawking	50220
mont	8691
ighthouse	32303
olina	47196
casts	40924
ĠRemoval	46209
amon	16487
altern	33645
cash	30350
ĠESV	33910
api	15042
ĠMarket	5991
Ġarrives	14443
Ġexpressive	38084
about	10755
hei	27392
ku	23063
ounty	17705
ĠFactor	27929
Ġhonest	5508
Thu	39902
ĠSomalia	23918
Ġinstinctively	43045
agh	10471
Ġlinking	17795
nih	37373
loop	26268
Ġmayors	44660
Ġresent	20315
Ó	143
Ġharbour	39720
XM	37643
Ġportfolios	47837
ĠGaw	30187
Ġcursor	23493
ĠBulls	18075
Ġfriendship	14738
Ġmoment	2589
361	35195
Ġallied	22034
Ġattaches	48262
Ġloc	1179
2	17
OX	48632
ĠCatholic	7835
Ġadvance	5963
KA	25123
izzard	16191
ĠJace	49674
Ġclimbing	14281
Ġoverseen	43097
ĠSens	14173
Ġre	302
hips	5748
Based	15001
ĠSheikh	30843
ĠNebula	46915
ĠEstablishment	37132
Ġdiscrimination	8839
Ġkeys	8251
Ġreversible	48287
que	4188
Ġgovern	1089
imaru	49551
ĠNEO	44106
helial	35566
Ġgraduated	18303
Ġisolated	11557
Ġlen	18896
Ġroutes	11926
css	25471
PH	11909
bs	1443
Ġmelted	24178
iku	28643
ĠWhere	6350
Ġskeleton	18328
ĠOracle	18650
2002	16942
Ġhorrified	32816
Ġsubsequently	12412
Ġtortured	22485
Ġresid	15384
Ġnihil	49413
Subject	19776
grad	9744
quez	22281
ĠCutler	37194
ĠPaleo	46840
Ġconcession	33130
Ġpatrol	13969
Ġsedan	38988
Ġtax	1687
Ġtriangle	22950
ĠSie	48931
ded	9395
perture	27286
Documents	38354
WOR	45359
izza	9990
ramid	20255
ĠMaver	28870
Line	13949
ĠOmn	31816
Ġsmiling	16755
Ġmassage	26900
Ġunveiled	18475
boot	18769
deck	35875
distance	30246
ĠArm	7057
Ġaccents	39271
Ġbook	1492
Ġcertific	8700
EA	16412
Delete	38727
Mex	24670
2020	42334
iry	9045
ikan	49894
nown	3408
ĠCeleb	35688
Forward	39746
ften	14785
ĠNil	29213
ĠCamera	20432
WER	45532
ĠPanzer	46294
ĠUri	46688
Ġboxes	10559
ty	774
irin	47388
Ġenabled	9343
Ġinfl	28472
Ġinterviewing	31481
typically	48126
ĠCosts	36845
Ġridicule	38364
Ġskirt	23967
Ġcouples	11886
KO	22328
Ġauthentication	18239
Ġsavior	47921
Ġsubsid	7905
Ġdisturbance	30497
Ġthwart	36162
FBI	39379
Ġ$_	40111
ĠWee	48643
Ġabuser	46601
Ġdisappointment	18641
Ġenhances	32479
Ġasks	7893
Ġforecasts	26119
Ġparental	21694
iki	5580
ĠDuterte	25763
âĻ¦	41298
Ġraged	49000
Ġ==	6624
ĠWolf	8662
Ġelig	7453
Ġbrothers	9397
Ġprimary	4165
Ġreproduction	20728
An	2025
Tag	24835
arius	19897
ĠAnderson	9918
ĠSeven	13723
ĠStudy	12481
Ġsignific	2216
Ġstakes	21147
umes	8139
Ġdrying	29621
Ġpack	2353
Ġcompact	16001
Ġshr	10157
ĠRuins	40247
ocol	4668
1985	29110
Name	5376
ĠFemin	25832
ierre	31058
Ġbanished	43926
ena	8107
Ġdimension	15793
ĠBalanced	38984
akov	44715
ĠCoast	8545
Ġdestroyer	41056
Ġ358	41761
Ġechoes	30346
Ġinco	44237
Ġpessim	32277
Ġquietly	12703
Ġreplied	8712
Ġwasted	18359
ĠÃł	28141
Ġfulfilled	23085
Ġdeform	47577
ures	942
Ġ113	17318
Bro	15783
Ġinspection	15210
ĠSummoner	49167
Each	10871
illard	32681
withstanding	20701
ĠKessler	46474
Ġbee	20697
ĠPegasus	48188
75	2425
Ġchoosing	11236
ĠAzerbaijan	33605
Ġdissolve	33862
Ġdrilling	19747
Ġexempl	21433
1977	37781
este	29872
Ġstimulated	40216
Ġtolerate	21923
Ġele	9766
Ġorphans	50213
ĠConfeder	16986
Ġce	2906
rules	38785
OTE	23051
Ġasynchronous	39354
Egypt	39299
itzer	10557
ĠJav	49247
Ġdemonstration	13646
970	43587
ĠCB	10078
Ġassault	4641
Ġmanipulation	17512
selage	45217
ĠPDF	12960
ĠGarland	35466
Ġhistory	2106
Ġnotebooks	43935
aniel	6321
Great	13681
ĠSome	2773
Ġsecondary	9233
sites	49315
MX	43243
ĠBeware	49538
Ġhesitation	29592
Ġtaps	34531
Ġwaivers	35633
Ġdeposited	27163
Ġcommons	36523
Ġgamble	32385
Ġnudity	42156
ĠSur	4198
ĠEastern	8345
OTOS	33291
anche	6362
ENE	39267
Ġ301	25643
Ġthree	1115
173	25399
ĠPlan	5224
GR	10761
ĠScher	47956
asonic	30189
Ġlit	6578
ĠFountain	40913
Ġoutwe	26644
ĠTrophy	25640
Four	15137
Ġprobes	33124
ounters	15044
christ	43533
ĠAlchemist	36084
ĠLO	17579
ĠSTORY	46427
Ġvocals	25355
ĠPsychic	38874
ĠKarl	15415
ĠIn	554
ĠPsychological	30583
Ġexpire	24264
Ġfunky	42958
uitous	42412
Ġlbs	15785
Ġnaughty	45128
Ġresusc	48636
Ġtro	4161
Ġworked	3111
girlfriend	45189
Ġsp	599
Ġimpacted	20755
Ġdisappearing	28867
ĠSquirrel	44259
Ġthreatening	11123
rop	1773
Ġ978	41417
Ġemb	4072
ĠRoyal	8111
Ġcompulsion	48672
Ġsearching	10342
Ġcorrected	19267
ĠEmir	21579
Ġ411	43184
Ġunexplained	43286
ĠExp	5518
ĠÂ®	38852
Ġexperiences	6461
ĠGriffith	30469
ingham	25875
cliffe	33783
Ġseniors	23481
YN	40760
ommel	48990
EXP	49864
Select	17563
Baby	36534
ĠZan	47022
Ġattent	32649
Ġbash	27334
Ġtion	34222
oni	14651
imes	999
ribute	4163
Ġfel	10756
Ġshot	2823
Ġemergence	22106
Ġsting	24276
ĠGreenberg	46702
Den	21306
ĠLo	6706
Ġinmates	16831
Ġwatts	36416
while	4514
ĠCathy	40636
amine	9862
Ġsoaring	32376
ĠPurch	34459
nd	358
However	4864
was	9776
ĠViper	34517
Ġdonate	16565
zes	12271
Ġimmediately	3393
encies	3976
ges	3212
Ġarranging	41878
ĠGil	10689
Same	30556
752	43665
ACT	10659
ĠHouse	2097
thinkable	37510
Ġmaze	31237
be	1350
avid	8490
hd	31298
matic	13849
ÃŃ	8836
onna	6415
status	13376
æĪ	22755
ĠChargers	23559
Edit	18378
ĠHoff	21890
yp	4464
ãĤ¨ãĥ«	46948
ĠDiesel	42718
ĠLur	47851
ĠUnfortunately	8989
ĠWOR	21881
Dem	11522
school	14347
zip	13344
140	15187
local	12001
ĠLive	7547
vich	49547
ĠSupport	7929
ĠDram	36736
ĠLM	37125
ighty	14400
ners	2741
ĠFAT	47200
ĠProduct	8721
ogeneity	37477
Tem	12966
320	19504
ĠUp	3205
ĠAtomic	28976
ĠWikileaks	35828
ĠZombies	23274
ĠOrtiz	39039
bat	8664
Ġapart	5475
Ġcelebration	14395
ĠDame	20377
Ġinnoc	7909
Ġlogical	12219
Ġmysql	48761
Ġcommunism	27770
Ġbarley	38877
Ġproceeding	18788
digy	41923
Ġimpose	13551
Ġdesigners	15441
Ġleve	34002
carb	35684
udes	8401
Sol	36949
Ġbicycl	48094
Session	36044
ĠCambridge	14457
ĠPTS	20907
Ġcapita	21344
Ġcancers	25217
Ġcolour	9568
Ġincreased	3220
ĠPeople	4380
Ġillustrates	21290
eyes	48418
Ġfragments	21441
igo	14031
Ġhold	1745
Ġnarrowly	26167
Ġdeployment	14833
765	29143
Ġobnoxious	43283
Ġparsing	32096
Ġpollen	40362
tip	22504
ĠTec	48257
ureau	6262
Ġgrand	4490
Ġimpart	23553
Ġoffenders	17120
Ġhump	49779
ĠCrew	17652
irgin	4672
Ġprog	1172
ĠSlim	34199
ĠClarks	35931
ĠBrawl	31871
Tang	43909
Ġdestinations	23982
Ġhistorical	6754
ĠProsecut	26233
Ġpromoting	11560
ĠIsabel	41838
ĠUniform	35712
Ġduties	10741
Ġsaint	32292
Ġsid	9785
Ġstr	965
Ġswallow	26633
Ġdance	9280
Ġthen	788
Ġtherapeutic	21546
Ġad	512
Ġuncons	13962
uri	9900
ĠWiggins	44633
VG	43490
pay	15577
Ġspecies	4693
Ġdownstream	33218
Ġextremist	20440
Ġnp	45941
Ġgovernor	8153
anges	6231
ynam	4989
.ï¿½	40670
Ġ138	21503
Ġblessings	28388
Ġfurnace	42227
abolic	29304
)\	19415
Ġperme	29298
Ġleans	39416
ĠLange	47579
Ġcertain	1728
Ġrape	7262
independence	39894
ĠReduce	44048
Ġthread	4704
Ġexpansive	31316
ĠGum	34587
Ġsynchron	18305
ĠNevada	12087
Ġentrepreneurship	44436
ĠCoyotes	42228
Ġbasics	19165
Ġbaking	16871
Ġtopic	7243
Ġtradem	12677
ĠIsles	36217
Ġultra	14764
Ġunethical	38486
inflammatory	32272
Ġuniversal	10112
ĠBrave	22813
ĠUAE	29367
Offset	34519
ĠCOVER	47902
.*	15885
ĠRedmond	49420
Wal	21902
Ġadvis	8503
Stock	26207
Ġboobs	41050
Ġaltitude	20334
Ġgelatin	49084
Ġscoring	9689
nuclear	43131
Ġsugg	1947
ĠSounds	27107
Ġcapitals	44590
Ġ346	44729
ĠPulitzer	44127
ĠBurgess	46744
Ġautomatic	11353
ĠDanger	20419
Ġevict	49397
Ġpersu	10722
Ġsupplementation	30306
install	17350
resh	3447
Ġ337	42294
heastern	18160
ĠOliver	15416
ĠSci	10286
GI	18878
ĠWalker	10120
Ġlake	13546
Ġtweaked	38304
Ġfiles	3696
ĠGamer	19576
Donald	7371
Hell	28254
leases	29329
ãĢ	5099
ĠMark	2940
ĠCam	7298
Ġaging	14736
ĠFul	28040
umat	27798
ĠWeak	28788
Ġdownload	4321
addons	39996
student	50139
uracy	23843
ĠSussex	41588
Ġembryonic	49710
Ġgenerations	10439
Jen	44875
ĠNavigation	42115
ĠPlug	22689
CS	7902
Ġensuing	29543
Ġgoodies	39863
533	44994
ĠRecession	39824
PI	11901
quote	22708
ĠCompan	16154
ĠGray	12723
ĠGuid	37026
ĠJuice	35161
ĠMoscow	9070
ĠVera	44413
åħ	17739
Ġentitle	44594
Ġhepat	32070
prus	26440
rett	11489
ek	988
Ġinvestig	2009
Ġnavigating	35210
Ġph	872
Ġprin	6059
ĠLor	26068
ĠLanka	28143
Ġthick	6546
1972	41023
Ġimplants	35223
Ġundo	23981
Ġwrapping	27074
Wallet	47152
ĠBlackBerry	30845
sts	6448
Ġcunt	40267
Huh	46010
Ġ___	46444
Ġghosts	25899
Ġrequisite	37088
Ġcontinuously	17282
Ġharm	4419
idered	3089
abl	23117
ĠLoren	32035
\<	49778
Stand	15480
Ġ(+	11502
ank	962
Ġcryptoc	15149
unknown	34680
261	30057
Jane	41083
ĠHarmony	35088
ooting	12494
Pay	19197
ĠTrent	24269
Ġadaptive	29605
Ġlot	1256
Ġappropriated	32316
Ġsealed	15283
65	2996
ĠDon	2094
ĠMunich	22418
Ġcurls	49507
Ġhefty	29784
ĠCompanion	30653
istically	16772
ĠLam	10923
ĠPag	31525
Ġpens	29707
Ġreorgan	35459
atson	13506
014	28645
4000	27559
Ġfascination	35556
Ġmad	8805
Ġpopup	46207
ĠConsumer	18110
Ġreminded	14516
Ġproxies	41775
ĠLaw	3854
ĠTsu	23459
ĠJin	17297
Ġbarric	31853
ĠFortune	20425
Ġpolymorph	34196
Thursday	25381
ĠIntegration	38410
Ġmicrobiome	48465
Ġproximity	20387
Ġrespondents	14502
nit	48825
ĠKuwait	27028
Ġcolle	6367
Ġvacant	23957
Ġvisits	11864
ĠBears	15682
pract	29152
Ġhurricanes	40370
Ġkindness	23887
Ġlegislative	10828
Ġneedles	25209
ĠCthulhu	39316
gn	4593
Ġtick	4378
Struct	44909
VID	11008
ĠRenew	29479
Apps	48433
Ġmisinterpret	40882
Ġrepaired	27457
Ġturnout	21666
Ġdisgr	19329
Ġyuan	34847
omorphic	46374
Ġmultif	43543
itals	8321
Council	40940
iece	8535
ĠFranco	22198
Ġsclerosis	46225
Ġsheep	15900
Ġfet	11351
monkey	49572
ø	180
Ġstark	19278
omever	49784
ĠGenocide	48721
ĠHuh	45412
ĠRacing	14954
ĠRoc	13545
Ġalien	8756
aries	3166
Ġconsists	10874
Cele	42741
imates	26748
ĠKathleen	31275
ĠSage	28733
Ġlate	2739
Ġminimal	10926
awn	3832
MOD	33365
ught	8951
Gil	40747
ennes	42573
arcity	32689
yson	19699
ĠByz	36655
ribune	44130
ĠEight	18087
ò	174
ago	3839
ĠMiles	20404
atti	34891
Ġcondolences	38671
ĠNursing	46278
ĠReligion	21741
Elsewhere	49374
Ġdecreasing	24030
ĠDenis	33089
Ġourselves	6731
Ġprotect	1805
ĠEarly	12556
Ġreliably	26995
Ġstakeholders	26138
ĨĴ	10253
Ń	255
Ġhopeless	23292
ĠPatriarch	48665
Ġstatistically	19941
Ġtodd	23646
Ġdespair	20234
Ġ{:	46110
Ġorganising	46729
grey	49502
663	45791
Ze	36056
ilts	50076
ĠDEL	28163
ogg	10332
ĠLes	11732
olith	21446
Ġcountry	1499
director	35248
ĠAle	9300
Ġgenetically	20807
ĠDefenders	26983
Ġcard	2657
Ġpinnacle	45985
Ġtips	9040
Ġhone	47267
Ġwebpage	35699
pound	19568
ĠMeyer	23975
ĠAz	7578
ĠSnapdragon	39508
Ġongoing	7044
18	1507
ugi	45659
Ġcosting	25894
Ġhealthcare	11409
Ġcirca	37211
Thompson	48942
scroll	48728
Ġbung	43974
wild	21992
ĠStates	1829
ĠRichmond	16940
Ġfost	26546
Ġrecovers	46773
puting	48074
ĠKurd	9778
uli	32176
ync	13361
Ġfeelings	7666
ĠArtist	18902
ĠWI	29360
iox	12190
Ġaccomplishment	29340
Whatever	21875
ESA	43279
Ġ428	45063
ĠAuthentication	48191
Ġsacrifices	24601
speed	12287
ĠMilan	21574
Ġrelax	8960
Ġimplementations	25504
Ġheating	16930
engineering	40321
ĠCalder	36468
@	31
Ġdred	47478
Ĭ±	46788
apult	41387
degree	16863
ĠNarc	31987
ĠKnown	29454
Ġ74	8915
Ġrefusal	17387
ept	19598
ĠZionist	29390
Ġperiodically	26034
Ġacknowledgement	41259
porter	26634
ĠInstrument	42410
ĠMc	1982
Ġhandle	5412
ĠMix	15561
Mission	37057
rant	5250
ĠCluster	38279
eren	14226
ĠCampbell	14327
ĠLol	44841
Ġheadphone	36769
Luckily	42332
Ġforests	17039
Ġwooden	13510
RM	29138
ĠAdapt	30019
Ġerotic	32739
Ġhiatus	37009
Ġworry	5490
Ġpitfalls	45716
Ġempt	23909
ĠSchro	47349
Ġsed	10081
Ġregistering	28336
win	5404
Ġhappened	3022
Ġcrystall	31578
Ġnic	9200
Ġredesigned	36240
Ġirrelevant	18046
such	10508
bows	25435
ĠNode	19081
Ġtracking	9646
itas	21416
Ke	8896
Ġthis	428
HM	36905
ĠSpec	18291
Ġbiom	27488
ERN	28778
pei	33265
Ġhacks	30445
ĠMedal	9064
eding	8228
Ass	8021
ĠCounter	15034
Ġsurrendered	29209
escap	50141
owicz	47982
ĠOps	26123
Ident	33234
artz	13636
chery	31132
utics	48063
ĠSteve	6542
Ġcylinders	43386
bra	16057
ice	501
ĠArena	10937
ĠExtrem	47871
âĸĴ	40516
Ġaffected	5676
Ġclimb	12080
Ġorganizer	26311
Ġribbon	29092
atlantic	43342
ĠRainbow	19909
:#	43922
?),	33924
pid	35317
ĠMad	4627
Sky	22308
Ġroofs	42251
Ġhighs	28227
Ġfiber	13608
ĠKilled	13095
Ġsuscept	18163
ĠLadies	37401
Ġsum	2160
Ġcomet	31733
Ġcerv	28987
Ġanchored	39871
Ġeyeing	48847
Ġsequ	4726
Ġpetitions	32890
Ġbenefit	4414
Ġcareers	16179
Ġhit	2277
type	4906
Ġinfluence	4588
Ġglitches	43705
ĠGranted	38842
ĠQuebec	14778
Ġnods	34833
zone	11340
Ġcapitalize	35160
igsaw	45636
elo	22126
ĠContinued	22168
ĠHitchcock	49817
Ġsubdued	38759
Ġsympathetic	22335
anical	36684
Farm	48412
lights	8091
As	1722
ummer	31647
ĠNotably	45683
aged	1886
Ġmutually	26519
Ġscrimmage	39325
Ġprompts	36454
Ġ<[	29342
Ġsmooth	7209
liner	24683
ax	897
onal	20996
ĠTitus	49207
Ġfetish	32870
ĠCONTR	27342
Ġlay	3830
ĠAph	47067
rb	26145
Ġpay	1414
Ġsentenced	11897
Ġstating	12316
ĠLearned	38514
Ġintra	23422
Ġtacos	44058
RAL	35296
Ġinnovative	13097
ĠZap	36079
,-	12095
Ġ||	8614
Wonder	42337
Ġlo	2376
353	33319
ĠFlames	25814
ĠSlash	26616
Ġordered	6149
cester	33187
ĠCamb	21456
compliance	47587
ĠShinzo	43531
ĠStarting	17962
ĠGreatest	33575
Ġapocalypse	37251
iro	7058
ĠIndones	12638
ĠMichael	3899
Ġbiochemical	47685
Ġboarded	35032
Ġcheeks	25839
Ġhandler	21360
Ġlandlords	30658
ĠLinux	7020
raham	13220
Ġimmersive	31403
until	28446
Ġmeg	17243
Ġmeters	10700
KING	37286
ĠBoris	25026
Ġmixes	33237
luck	46708
Ġmultiple	3294
Ġdidnt	42547
Ġpancakes	47008
Ġterror	3246
ĠMeridian	46348
Reply	36875
blem	11253
bler	43400
essing	27289
Ġpier	17748
Ġstarting	3599
ĠLiberia	33208
Ġhijab	48492
Ġnucle	17751
project	16302
urses	46998
ĠEb	12119
ĠNAFTA	34747
ĠPRESS	44310
ĠSun	3825
Ġboasts	22103
u	84
Ġobjected	29811
atus	7240
Ġpeacefully	30996
Ġ1981	14745
ĠResult	25414
Share	11649
URA	45570
iqueness	46764
Ġangels	21981
Ġcousin	16933
Ġnin	13462
opian	37548
Ġpoly	7514
Ġseeds	11904
Ġdeepest	25420
ĠLiver	45036
Ġsyrup	24208
Ġvm	45887
Acc	17320
ĠEvil	10461
Ġ"{	45144
580	39322
ĠUnt	26970
Ġcrystal	15121
Ġparody	29695
Ġfallen	9292
OTHER	31858
Ġwoo	36440
Bet	13056
CG	39816
utable	18187
Ġenjoying	13226
ĠJunction	44410
Ġgraphene	42463
Ġnearing	37242
Ġslime	34570
Strange	38114
584	46352
isha	19388
amp	696
Ġassail	29886
ĠCrossing	31910
Ġranked	10307
ĠProof	29999
ivation	26939
Ġentrepreneurs	17038
Ġrebuilt	30080
Ġsourcing	47015
Ġratified	39067
222	23148
Chief	23675
Ġfixtures	34609
ĠPrevention	18313
ĠMalk	41980
Ġcompound	13061
Ġmirror	10162
thirst	48832
ĠRevised	31492
Ġmoving	3867
lords	19673
ĠFighting	19098
ĠFarage	33904
Liverpool	44232
Ġdeport	29489
rough	740
agog	37300
âĢİ	48261
Capital	39315
lund	37525
ĠLunar	31947
ĠMafia	32676
ĠReference	20984
ĠSovereign	44964
Ġdisappearance	22375
Ġemerges	25457
Ġ308	35617
Ġfountain	29420
Ġhospitals	11301
Ġimpat	28189
Ġinfield	43262
Monitor	35479
ĠDairy	46579
NET	12884
ĠTJ	41852
Ġmutual	13584
Ġrook	10929
%%%%	36917
Ġstaged	23393
ĠPike	29539
Ġindoors	31797
Ġtowed	49445
itiz	3029
Ġholistic	42923
ĠNewly	43222
ooming	30602
Ġclim	5424
ĠCreate	13610
Ġmathematical	18069
Ġvac	6658
Gre	43887
Ġapprentice	39252
Ġdye	30121
Ġrecreate	32049
Ġready	3492
----	650
ormal	6636
"/>	26700
children	17197
ĠSudan	19610
ĠFedEx	45212
Ġelevation	22910
iologist	31599
Ġ470	38634
LGBT	37701
Ross	38328
Between	25262
ĠLibya	13465
ĠProgressive	25852
Ġbid	8406
Ġdesperation	31265
Ġ2013	2211
Ġembarked	36385
Ġmarkers	19736
Gray	46130
Ġ(=	46121
ĠNob	8140
Ġcommonplace	33488
Ġphen	6566
ĠâĨ	17804
Ġremarkably	21196
\",	34607
ĠHunter	9055
5000	27641
ynthesis	44411
Ġbolted	49647
û	183
import	11748
ĠFormer	14466
Ġcomment	2912
ĠMEN	41597
Ġdepictions	44528
absolute	48546
Ġ&&	11405
Ġgir	37370
Table	10962
til	47163
ĠBayern	30683
ĠBoulder	27437
Ġseparately	13869
ĠHua	43709
ĠEm	2295
Â¶	26604
Ġnegatively	22533
Ġpractice	3357
guided	23657
Fab	43957
ĠAugust	2932
ĠKnowledge	20414
Ġconsultants	29597
Ġpostseason	22905
ĠBeard	41698
ktop	16201
Ġsuggestion	13052
1950	42751
ĠNicholson	40365
>.	28401
ĠINCLUD	47783
November	21159
ano	5733
uph	25689
ĠIsa	13377
violent	24498
ĠBean	26510
ĠLastly	36778
ĠSteel	7851
Ġdecided	3066
---	6329
Ġexploring	13504
Ġimpro	2015
orry	5152
Ġindiscrim	36459
ci	979
Ġlion	18744
Ġradio	5243
personal	22682
Ġdisband	35758
Ġsymptoms	7460
Ġunderstood	7247
Ġunmatched	48621
ĠSkinner	42899
Ġweeping	45705
ik	1134
Ġcrochet	46149
Ġnaked	12105
Ġportals	42604
=(	16193
oya	23790
;;	7665
Inter	9492
ĠMB	10771
chuk	46019
ĠItaly	8031
Ġdistort	30867
Ġdivisive	29656
Ġbloom	29955
Ġbrazen	40033
ATTLE	35455
zai	35142
Ġneoc	29938
Ġrhythm	18662
ĠCreed	24299
unders	41116
grow	45921
ĠKoch	17009
ĠRights	6923
Ġspies	28801
nv	48005
ĠReferences	31458
Ġnuns	45805
Photo	6191
ises	2696
ĠPAC	16741
Ġcoughing	48308
ĠTopic	47373
achi	14299
undo	41204
ĠBhar	33653
cil	2856
ĠSasuke	37527
ĠSurf	43771
png	11134
Ġeliminating	18591
gy	1360
ĠTycoon	28222
Ġcherry	23612
Ġmere	5019
aret	8984
Do	5211
ĠFIN	33642
Ġrumored	29586
professional	33163
NH	33863
rences	34303
ĠDeadpool	40448
edar	44226
LG	41257
ä	160
zag	50183
ĠHur	10077
ĠPop	8099
Ġ267	37364
Ġ980	32614
ĠShi	16380
Ġcorridor	20749
Ġgradual	24972
Ġeffic	4396
iuses	44666
Ġdazz	32282
idia	38513
Ġkosher	43951
Ġlac	31123
Ġmotivation	14052
Ġobjection	19630
rea	21468
Ġskyline	47566
Ġ"	366
Ġslowly	6364
mean	32604
ĠEthiopian	47689
ĠFrem	38433
Ġexempted	48521
Ġsmartest	44730
ulnerability	40920
ĠPyr	27958
inyl	19754
Ġdelinqu	32050
ĠDungeon	11995
Ġafternoon	6672
Ġafterwards	12979
ub	549
ĠEB	43374
Ġflux	28462
SF	20802
TON	11357
sem	43616
geon	6281
ava	4170
ĠSAF	37630
Ġconfined	19733
EAR	17133
ĠNorthwestern	30197
ĠFunny	40473
00007	44808
Ġpo	745
Ġrevoke	39041
ĠSL	12419
Ġnumerous	6409
absor	46303
ither	1555
ĠCowboys	16535
ĠEarl	21647
ĠWhenever	21326
Ġdisorder	8967
Ġrepresentatives	10826
cellaneous	25673
Ġpiano	19132
Ġshops	12437
bians	30071
Ġspaced	38980
ĠstrutConnector	50009
Ġunusual	8468
agascar	44309
rier	5277
Ġmat	2603
Ġoutlets	12527
Ġoverlooking	34603
Ġut	3384
Ġcalendars	50215
ĠWald	24261
olas	12456
Ġdubious	25292
Ġerrors	8563
dam	11043
ĠSHA	25630
Ġcheese	9891
Ġbasic	4096
Ġbookmark	44007
ĠNot	1892
ā	189
ĠZack	30718
Ġguesses	44774
Ġlatitude	32477
Ġconclusion	7664
OSH	45704
Ġcf	30218
Ġrubbed	31862
476	35435
Ġaest	14606
XT	25010
Ġhardly	8941
Ġ206	27253
Ġminority	9137
aternity	17094
ĠComparison	34420
ĠDos	43976
Furthermore	24951
iege	14566
ĠSergey	36106
sn	16184
Ġdull	19222
ĠZhou	32222
successfully	37351
kefeller	31424
someone	46248
tarian	14012
rors	5965
ER	1137
ilers	34393
emed	9006
uits	15379
168	14656
merga	44739
ĠHier	36496
Ġappell	24781
Ġbeautiful	4950
Ġdecad	46734
Ġencode	37773
ĠResident	22373
ĠRevenue	20197
Ġcategory	6536
CLASSIFIED	45449
ĠBuilt	28477
ĠRear	30144
çīĪ	48304
Ġnature	3450
Ġsucc	17458
='	11639
campaign	35012
Ġ137	21643
Ġfuss	34297
ted	1513
Ġpromise	6991
Ġtherapists	39395
Wi	31294
anyon	21330
Ġliterature	9285
Ġshaken	27821
AFTA	32106
Fil	11928
Support	15514
au	559
love	23205
ossession	49809
rescent	26505
sf	28202
ĠFridays	45011
ĠInvisible	39571
ĠKen	7148
ĠObjects	35832
Days	38770
asms	34432
ĠControlled	43253
Credits	42855
Ġdistractions	38085
Ġprecedence	38177
Ġexhib	7316
Ġtooltip	49472
ĠAwareness	36735
Comments	23903
ĠAce	17102
Ġfurn	8926
Ġtrafficking	14616
Ġveget	7494
465	42018
ust	436
175	17430
atorium	30732
ĠBeatles	27330
Ġcardio	47926
Ġdeferred	28651
Ġlogistical	41088
Ġsuffice	34302
Ġgrep	42717
Ġbudding	44194
ĠMcCl	23780
ĠBeir	38693
Ġambush	34298
ĠMaharashtra	41624
Ġgigs	42299
Ġgust	35253
Ġinsurgents	31622
ĠGhana	32825
Ġpatriarchy	41932
Format	26227
Ġ-	532
ĠStrategic	24999
Ġtriumphant	44005
ÿ	187
ee	1453
gian	18299
ĠBuddy	36896
Ġanyway	6949
Ġchurches	14422
Synopsis	49771
Ġmechanically	47878
Ġpredictive	33344
Ġtraveled	14113
Ġunintentional	48398
appro	21064
yk	48361
çĽ	33566
Ġcooldown	20869
Ġunprecedented	13029
ĠAccount	10781
ĠShields	30512
Voice	35708
53	4310
ĠPDT	28288
ĠShattered	48330
Ġenlarge	27475
Ġfeat	2218
Ġmonopol	30797
Ġlives	3160
Ġinvolving	7411
Ġlured	41546
Ġbask	39353
sole	6753
463	38380
fresh	48797
oshenko	43934
Ġresp	1217
ĠResults	15691
((	19510
chell	12398
Ġcand	2658
processing	36948
Ġexpectations	9027
ĠHab	19654
Ġseizure	22338
Ġsilhou	33123
ĠMedals	42171
ilities	2410
ĠWithout	9170
Teen	45639
ĠVIP	24791
Ġratio	8064
Ġisot	31624
empl	18856
Ġspite	15275
Access	15457
ĠTimbers	40200
Ġtied	8165
Ġawfully	45421
ĠTier	15917
Ġturmoil	26962
ĠCary	47474
Micro	13031
aturday	3658
ogan	9632
ign	570
ĠNZ	26905
Ġattrition	48981
992	41561
ĠLind	9329
Ġfacade	43562
ĠCrusher	44711
362	35667
meyer	48794
Ġhonestly	12698
Ġsit	1650
posed	29813
auldron	45637
Ġbasis	4308
vict	32433
ĠMemories	32923
ĠSting	35785
biased	38002
Image	5159
ĠPret	37123
Ġlur	20605
Ġproceeds	15740
Ġsome	617
Ġlighthouse	46371
ĠWebb	25130
acia	47431
Ġhosp	10496
Ġpeers	14495
wood	3822
ĠFreak	45328
ĠGreenpeace	42793
ism	1042
Ġbiodiversity	37589
Ġinduced	18268
ĠBulgar	26163
chall	36747
indle	42343
ĠReid	16095
Ġconcerts	28565
[]	21737
rance	8132
ĠMerge	39407
ĠCohn	45005
eny	28558
ĠDEAD	42533
Ġalright	23036
unks	14125
ĠRelease	13868
.]	8183
General	12218
ĠIllegal	42272
hao	23778
ĠStandard	8997
ĠThrow	22481
ormonal	33792
Ġattach	10199
Ġdebug	14257
ĠguiIcon	30211
Ġincompetence	39674
æ	162
writ	8933
ĠCONS	39537
ĠLets	38257
Ġjump	4391
Ġbastard	31030
804	36088
Ġestablishment	9323
Ġfinance	9604
ĠLeicester	29224
Ġounce	25799
Ġsimply	2391
Ġurges	28804
urbed	37694
Ġwom	1116
LC	5639
ĠÃī	43052
onis	43524
Ġ	220
ocl	38679
Increase	46890
ĠCatalan	31066
Ġdest	2244
ista	12523
Ġinhabit	14527
Ġmultip	18540
iotic	16357
ĠScream	36306
Ġrelatives	12772
Ġwalls	7714
ĠWinc	35898
Ġpreclude	44125
ĠTaxes	42260
abor	4820
ĠMILL	49775
Ġflipped	26157
Ġleftover	39191
DR	7707
åº	41753
ĠConcepts	50053
ĠLIN	43277
ĠGenesis	18993
isel	36811
FY	43833
colm	18414
cules	13930
Ê	134
ĠReflex	43214
Ġbarrels	17907
Ġvoting	6709
debug	24442
529	49721
ĠJun	7653
ĠLounge	36333
ĠMood	25723
ĠVegas	9621
ĠXiaomi	46726
Ġabsorb	17565
Ġaccidents	17390
Ġbarring	34928
Ġbracket	19096
ulet	25132
Ġafar	44246
Ġbrown	7586
Ġclerics	47964
Ġcompares	23008
JC	34382
Ġexistence	6224
Ign	32916
ĠGardens	29330
Switch	38978
ĠVERY	29550
Ġdefy	37462
iked	17951
~~~~	8728
ĠArbor	30455
ĠHillary	5073
Ġextension	7552
Ġpian	43923
Ġrecruiting	16517
Ġfearsome	46056
Ġhandic	29103
ascus	20275
Ġroughly	7323
Ġtriangles	44360
Firstly	49709
Step	8600
ĠEquality	31428
ĠQuestion	18233
Ġiter	11629
Ġwaves	9813
Ġfocuses	13692
Features	23595
include	17256
ĠAMER	32617
ĠArn	16644
ĠChavez	31039
pers	19276
ĠNepal	27026
ĠThankfully	31251
ĠWright	12206
ĠHyundai	47962
ĠYo	25455
Ġhectares	43025
aine	5718
»Ĵ	36596
Ġ<=	19841
Ġfam	1145
(\	38016
Ġevil	6181
Ġkeyboard	10586
ĠChase	16346
Ġbrick	17214
renheit	34032
Ġpants	12581
Ġsustainability	26809
ĠNord	18687
disc	15410
Ġ450	18523
Ġdisagrees	37868
Ġeuros	21138
Ġapproached	10448
Ġprote	5915
Ġcontaminated	23543
tell	33331
sys	17597
GT	19555
eties	31638
Ġunderground	11447
Greek	44059
Ġappl	3680
Ġcreature	7185
entry	13000
Ġ392	48207
Boo	46120
ĠAlpha	12995
ĠOz	18024
ĠReplacement	43986
Ġpredominant	45718
arthed	36370
ĠFunding	35249
ĠSocrates	41242
ĠTreasure	20215
Ġminor	4159
Ġnamesake	49829
irth	3333
December	20588
uben	44636
ĠSands	35359
Ġbottles	14096
Ġquite	2407
Ġfle	5104
Attempts	48452
apache	43073
ĠGet	3497
ãĥ¯ãĥ³	42983
Ġroom	2119
ãĤ°	26095
ĠLah	30693
Ġafore	18036
ayn	49987
Els	45507
Ġbarrage	33633
Ġcasing	39731
ĠLa	4689
Ġcasc	49164
ĠHost	14504
Ġcreated	2727
Ġbegged	32946
Ġiod	41080
Ġprowess	30721
ouple	43846
aunted	20227
ĠTravels	48899
Ġarg	1822
Herm	48523
ĠAlberta	15555
Ġneurons	16890
Ġexperimented	42107
Ġuncontroll	39483
Ġadvisable	46511
ĠÂ§Â§	47171
Ġastonishing	21994
Ġdissect	38319
Ġmono	33361
uments	2886
whel	30613
Update	10260
Ġvomit	44542
Ġalign	10548
essional	12743
Ġbehest	49672
Ġheated	16968
Ġexchange	5163
OLOGY	43781
ĠHaiti	25051
ĠNas	22767
slot	43384
Flor	26953
drawn	41549
Ġchic	47180
stores	43409
Ġcircumcised	45522
ĠRosenberg	40827
ĠSIL	47551
Ġproduced	4635
Ġ06	9130
ĠReed	16105
Ġtet	28408
acqu	43561
lycer	38577
orus	15125
ĠAnalysis	14691
Johnson	25378
Ġcramped	43295
Ġareas	3006
ummy	13513
Ġboosters	47949
Tre	31055
AGE	11879
Ġdonor	17052
ĠFAR	39024
although	16670
Ġinconsistencies	40467
."	526
proclaimed	39865
ĠBanking	35385
Ġlav	21606
Ġobject	2134
ĠKremlin	19077
chrome	46659
iser	5847
ating	803
Ġceremonies	27340
ĠComponents	36109
Ġtraced	23246
ĠICE	23358
Similarly	28039
ĠVance	40154
ĠRay	7760
Ġï¿½	20543
cyclopedia	25497
Ġshowdown	33338
sym	37047
ĠMirage	41627
alm	38182
Ġmi	21504
Ġnost	18216
ef	891
ĠNRA	23962
Ġhabitats	35308
677	40179
anked	14076
ĠPopular	22623
Ġprod	40426
ĠPolicy	7820
Ġpuppies	37793
ixir	32345
Ġ(/	50247
Ġorchestr	28127
ĠDick	11740
ĠWaiting	39669
assic	31635
strom	20282
ba	7012
ĠMichigan	7055
ĠParagu	47268
dit	5266
ĠAngela	17799
ĠReform	17893
ĠZ	1168
Ġmountains	12269
Ġbathrooms	32601
Ġprosperous	32757
................................	8864
gor	7053
Ġparks	14860
ig	328
312	27970
imei	45519
ĠPart	2142
Ġprostitutes	32159
Ġsector	6567
Ġ369	45620
educated	27317
unky	28898
Ġ465	49669
ĠArcher	19333
Ġninja	37049
ellectual	29706
Ġblow	6611
Ġseparating	27259
Love	18565
ishment	17862
Ġbending	30808
ĠDesire	41042
amara	47848
Ġcalf	31134
Ġcontext	4732
Ġdangerous	4923
Ġequate	45423
Ġrundown	45602
47	2857
Ġelong	39696
Ġscrapped	35034
ĠAsgard	41008
Ġsecuring	19732
ĠWhatsApp	37666
Ġelders	27495
Ġtackles	18034
ĠJen	13364
Ġwatch	2342
Ġomn	22284
Ġindictment	19975
Ġacquies	47752
Ġsupplemented	41610
ĠDress	33611
ĠAhmad	24152
Ġhereditary	49718
Ġsolid	4735
ĠBalk	29643
impact	48240
ĠSauce	37618
ĠDIS	13954
Ġexpands	27513
Ġreper	23269
ĠGarden	11652
umble	10344
Ġbolts	24667
sac	30584
Ġ));	29226
Ġpengu	38373
eating	30041
ĠCreatures	34539
msg	19662
Ġ490	45601
ĠTelescope	36789
topic	26652
ĠThey	1119
ERROR	24908
Video	10798
ĠCrime	10003
ĠLoan	32314
ĠPredict	49461
ĠUk	5065
Ġcontributor	18920
ĠTent	30765
Ġartifacts	20316
Ġhandguns	38060
Ġnecessity	14564
Ġdw	43756
Ġdegradation	27486
Ġdemographic	16728
Ġpaternal	38082
vine	26818
Ġprophet	22298
Ġretweet	38814
ĠAnyway	21836
electric	31067
Ġnarrowed	33214
alid	10751
ĠMight	24213
ascar	37740
ĠFrederick	26113
Ġtoughness	35879
Ë	135
location	24886
ĠLion	15218
Ġerrone	27383
anamo	33524
ĠDoug	15115
Ġfuriously	44896
ĠDiscovery	23455
ĠPhilip	14576
ĠKim	6502
Ġlame	30248
Ġstaggered	48480
oen	6571
izontal	38342
Ġtimeframe	41352
ographers	34063
ĠTrout	42542
{{	27007
Going	27404
Ġpiety	44296
Ġartery	37646
Ġworries	18572
elf	7046
ĠMeadow	43868
Ġmammoth	44268
ancial	2783
ueller	16466
ĠHitman	50245
Ġ419	48475
Ġretained	17383
ĠCarib	17152
ĠNak	22255
Ġ\(	16792
Ġlaying	16299
Ġcorporations	10225
Ġslower	13611
Ġprecision	15440
Ġcloser	5699
question	25652
Ġinitially	7317
Ġarm	3211
appropriate	13335
ÃĤ	5523
ĠInflu	46631
Ġprevalence	16815
Tokens	22906
ĠSwing	43650
Therefore	26583
ĠPlans	30305
Ġbushes	37413
Ġfreezing	20884
Hillary	20397
atial	34961
orea	46215
ĠMonaco	31630
Ġescal	12221
Ġin	287
Ġinformation	1321
akespeare	20946
Ġ3000	20343
ĠVI	13889
quer	10819
razen	36409
ĠAbd	17870
ĠPotential	32480
currently	41745
ĠZa	44210
Ġcrumble	49478
Ġacquire	12831
Ġgraft	38455
sa	11400
},{"	8762
anding	27225
claimer	17111
enc	12685
kil	34553
oute	13192
Ġanybody	9599
Ġopinions	9317
state	5219
ĠGiul	35267
ĠDund	37921
Day	12393
Hold	26807
icular	13174
ĠInvestigative	43965
umbered	26584
ĠParticip	13928
ĠTrevor	25389
ĠYoutube	27431
Ġdug	18735
Ġgasoline	21408
Ġinfinity	37174
Ġpenis	16360
tags	31499
def	4299
Ġravaged	47877
Att	8086
hr	11840
Ġsubmitted	8948
Ġtask	4876
ĠOther	3819
Age	23396
qa	20402
Ġirrad	47537
Ġpilgrims	42408
Ġparalyzed	36175
Ġprecisely	10582
Ġrallying	36467
ĠShadows	18037
Les	35882
Ġmethodology	20411
Ġtendencies	25671
Ġcle	1190
Ġupbringing	40678
ĠArrest	35080
ĠSect	24062
oku	11601
MAX	22921
Ġtentacles	41192
Ġstim	7132
ĠEtsy	38909
Ġ[...]	26894
udden	16557
Ġwidow	27075
Present	34695
Ġfair	3148
Represent	40171
clair	27659
ĠGlass	12158
ĠAra	30574
app	1324
ahl	15668
ĠHolding	31703
Ġdesired	10348
Ġarmed	6936
Ġwing	8539
ĠIbid	28865
286	27033
Artist	43020
ĠCle	3779
Ġnecessarily	6646
rian	4484
Ġshocked	11472
ĠPure	17129
settings	33692
ĠIce	6663
ĠHeck	31679
Ġ1955	25325
ĠRite	47810
ĠKosovo	37445
Ġinitiatives	15446
Ġlegalizing	44553
Financial	43621
bd	17457
ĠKY	33668
Ġpiracy	30955
ĠFeedback	37774
Ġsummer	3931
buffer	22252
ĠHubble	40455
nis	21361
ilo	18526
Ġaromatic	48440
ĠPlaystation	44902
Ġrugged	30957
Ex	3109
Setup	40786
Ġcommitted	5364
determination	40869
List	8053
ĠPyrrha	34386
ĠRHP	47201
Ġintimately	42075
Ġcelebrates	24538
Ġhomosexual	11479
ĠRidge	20614
ĠSaur	46197
Ġdocks	45906
ĠLogan	22221
Ġdou	2255
Ġmolecular	18955
projects	42068
ourning	31626
alogy	48909
ĠDeveloper	23836
ĠFROM	16034
mob	39949
Contract	45845
ĠRecogn	31517
Ġattachments	32161
267	25674
iddle	2509
270	20233
ĠAlive	29606
ĠPeninsula	24078
Ġdisconnected	28597
Ġsent	1908
Ġbackups	35872
Ġhitherto	45053
ĠPhilippe	39393
Ġhardship	30699
Ġmodels	4981
Ġtack	6331
Ġtonnes	26840
Ġcustoms	17112
Ġadmire	21099
ĠBarbar	45952
ĠIndustry	17420
Ġbondage	43473
ĠPoison	19357
æĥ	46349
Ġterrit	5771
chers	3533
Str	13290
ĠASP	34658
ason	888
ĠMob	16540
ciples	6418
Ġgimm	33135
Benz	42484
Ġreckon	43851
Ġelectrode	46203
Ġmetal	6147
TEXT	32541
adelphia	8273
tn	34106
natal	33150
ĠConduct	28579
ĠAWS	30865
Ġdungeon	18974
Ġfrag	7956
Ġshoved	35137
Ġpursuits	45968
expl	20676
Ġsampled	35846
ĠWarsaw	32955
Ġtunnel	13275
Topics	25902
Ġnoun	23227
iar	12571
ã	159
ĠCap	4476
ĠCommissioner	13270
ĠVirginia	6025
GS	14313
acceptable	16037
Ġassum	4368
Ġcrane	41175
Ġsee	766
é¾į	11885
ĠAgu	33118
Ġcoaching	13101
DEC	41374
ĠSupplemental	48165
Ġeuth	35008
Ġmales	10835
phthal	48118
will	10594
ĠPy	9485
ARA	24401
################	14468
Ġdownloaded	15680
Ġrespect	2461
Ġselections	28224
ohan	22436
SR	12562
ĠElim	27405
ĠGSL	46326
jam	39159
aff	2001
ĠPr	1736
Ġillust	6406
Ġexamining	17247
sheet	21760
Ġlumber	34840
redited	19465
works	5225
780	40873
Gar	27676
car	7718
Ġembed	11525
Ġmanagerial	43747
Ocean	46607
cgi	37157
Ġoriginated	20973
ĠContainer	43101
Ġinstruct	5048
Ġpesticide	36466
ateral	10534
Ġreally	1107
itating	21712
Ġneuronal	36347
544	47576
ĠTotal	7472
Ġemperor	23129
Ġestimating	39539
Ġseparatists	34214
ĠKeller	35999
Ġapologize	16521
fit	11147
ĠCann	12283
ilater	38601
rying	14992
Ġgraduation	21571
Ġunequivocally	47001
ĠFUN	29397
Ġrealizing	20060
Ġactor	8674
riched	30486
OFF	27977
FI	11674
Any	7149
Got	30074
VD	8898
eline	4470
855	45432
gren	32762
uchs	37533
WIND	28929
ossip	26710
UX	31235
omething	8370
ĠMercedes	21279
ĠSlate	30621
ĠTribe	27804
Ġbunch	7684
ensus	7314
ocity	11683
xff	47596
âĨĴ	39310
ĠBenef	19899
ĠCountdown	47555
ĠNorse	38419
915	40248
Ġcocktails	34281
Ġcunning	34218
Ġinning	21648
Ġpony	26902
Ġchart	8262
Ġshading	49065
ol	349
ĠWor	16597
ĠBennett	17468
Ġaffili	8349
Ġshrugged	28271
Ġsimulation	18640
Ġsleek	33143
Ġmil	1465
Ġprostitution	22679
Ġtaped	36114
Ġthoughtful	22677
Likewise	45872
ĠGreenwald	41821
Ġlearns	22974
ĠBrigham	37434
Ġwheel	7825
ĠCool	15226
ĠGroups	27441
Ġbuild	1382
ĠTart	37109
ĠMau	28931
lua	40211
orian	22618
web	12384
:/	14079
ĠMississ	12732
ug	1018
ĠPrelude	46897
ĠSaga	19743
Ġvisitation	49874
ĠEid	31022
ĠEndless	26480
ĠWhereas	28016
Ġdisciple	35567
Ġcrew	5462
DP	6322
Ġleased	40352
55	2816
Termin	44798
ĠHispan	13600
ĠChrys	27856
ceptive	25867
ĠWelcome	19134
ĠPartner	35532
Dur	36927
Ġbuying	7067
Ġcritics	9188
ĠNavajo	47380
":""},{"	47182
bending	49667
Ġcomposition	11742
gu	5162
ĠImpact	17677
Ġhusbands	27742
ogo	24076
Ġirresist	41111
Ġidle	21696
Ġm	285
Ġour	674
Ġrely	8814
Ġsurvives	36417
ĠMax	5436
bey	23454
Ġpositively	19888
Ġridge	32525
Ġthrob	48836
ĠSense	24956
etheus	36916
ĠEv	4319
Ġwidth	9647
Ġexodus	39524
Ho	28900
ãĥĩãĤ£	40629
ĠKag	26785
ĠLiu	18258
Blue	14573
road	6344
Ġindependents	35576
anium	15776
sea	8583
Ġredist	17678
Ġrepentance	45893
Ń·	48953
*****	35625
Ġhabitable	49055
Ġairflow	45771
ĠCauses	46865
Ġunt	1418
Ġepisodes	8640
ĠMagical	22294
Ġclassmates	28999
tre	33945
ĠInterface	26491
ĠVegeta	42867
ĠWorlds	19946
ĠBowman	38774
vant	4520
ĠIndiana	10278
ĠOrigins	24079
ĠStellar	39336
ĠVolunte	28935
ĠJulio	48273
Ġink	16882
Ġinterchangeable	43615
ĠSearch	11140
Ġwireless	12521
Fin	18467
Ġfonts	26806
Ġnoticed	6810
aly	3400
ĠPerform	35006
friendly	13120
Ġsurge	13853
Ġone	530
inside	48787
Cl	2601
Ġsympt	6585
Ġcommunicating	22889
ĠThousand	39255
ĠSim	3184
Ġevangel	17138
ENCE	18310
Gu	8205
ays	592
follow	27780
Ġcorp	24614
CVE	31436
326	39195
Ġmillion	1510
0002	34215
Ġunlaw	16148
due	23301
Ġcurved	26929
archs	34592
atu	33419
gemony	38953
Ġdetached	30795
Ġinstrumental	21543
Ġrepercussions	34056
atsuki	40063
Ġshrew	44551
Ã¡n	21162
mary	6874
uation	2288
Ġtun	6278
actory	9548
arser	28198
Wiki	32603
ĠAdam	7244
ĠGround	13706
ĠTory	19037
ĠMahar	31692
inois	8981
Hun	25117
SourceFile	37226
Inside	24441
acter	7321
Beat	34979
Ġaccol	45667
Ġdoub	3385
Ġidol	21580
Ġveterans	11255
ĠCredit	10504
Ġlookup	35847
285	26279
ĠCT	16356
Ġdistinctly	30911
Ġquantum	14821
ĠDaw	17552
Ġnarcissistic	48502
uzzle	9625
Ġnursing	19167
ĠPot	6902
Ġairborne	32726
ĠSinger	28755
Ġmysteriously	42529
ĠDi	6031
Ġconcealed	18176
ĠTir	39847
Michigan	40610
always	33770
Ġclaim	1624
ĠTottenham	24272
aps	1686
ĠPrescott	42555
Ġapprehension	46473
Ġtowering	38879
ĠTransformers	39185
Ġproclaim	23930
squ	16485
exper	23100
ĠGermany	4486
Ġbreakfast	12607
412	39226
Ġcomic	9048
Ġbuzz	14713
ġ	221
ĠGl	2671
Ġcp	31396
Ġfruit	8234
berg	3900
Ġbishops	27538
Adventure	48289
Class	9487
actus	34144
Ġoperative	28609
Ġreconnect	37671
ĠLamb	21114
Ġbuttocks	50193
upper	45828
Ġcriteria	9987
Ġdatasets	40522
Ear	8419
ĠConscious	45595
ĠTL	24811
Ġadmission	13938
oeuv	37600
ĠFaw	46081
ĠFran	12323
ĠKats	47244
ĠPetra	37285
í	169
ĠBEL	29991
ĠGHC	46615
ĠRuin	46085
Ġenthusiastically	42045
Ġmenus	26798
256	11645
Ġmanipulated	25036
Ġrobbery	18609
ĠOlive	30012
ĠPlaces	37291
ieu	22304
Ġpresenting	17728
hess	33979
Ġinfinitely	32264
Ġquestion	1808
Ġtone	8216
Ġbends	44370
Ġcentrist	47609
ĠFashion	30958
inar	22050
igen	9324
laughter	27815
ĠJeremiah	40192
ĠChick	31939
Ġaccusing	19786
Ġawakening	33971
Ġcollective	10098
Ġcorrobor	30220
Ġculprit	26581
ĠWon	23306
Ġseekers	22310
ĠGov	10964
ĠOften	18023
Ġkernel	9720
iced	3711
payment	37301
awatts	46684
advertising	34442
ĠHumane	45936
Ġbroader	11622
String	10100
adin	17072
eria	5142
Ġapolog	8453
Ġsudden	4802
ĠDisaster	35213
Ġponies	46370
Ġpdf	37124
Ġrealms	35423
ĠXT	44235
NK	46888
mitting	16138
ricane	11551
ĠEW	43255
133	16945
ĠValue	11052
join	22179
Ġtilt	26500
Ġpartners	4887
ĠIndonesian	28259
but	4360
Ġ123	17031
ĠChuck	14663
Ġans	9093
ĠSabha	41941
Ġflavorful	47420
Ġmuch	881
vic	25531
Ġmoderator	31847
ĠLas	10123
Ġdig	3100
Ġdiscriminating	48212
Ġmatters	6067
Ġobs	10201
Ġconstruction	5103
Ġlogs	17259
Ġtouting	48120
ĠLy	9334
Kick	45390
Ġcolon	7633
ĠSale	16467
Ġswollen	37327
Ġrap	4095
primary	39754
ĠOlivia	33911
SB	16811
ishes	5614
ĠAssociated	10575
ĠRow	11314
Ġchin	22531
ĠJe	3852
Ġobliter	35722
ĠAlas	45315
ĠBattle	5838
ogging	30853
rising	22610
avy	2830
ĠPackage	15717
Ġfinanced	29768
ĠGenerally	23904
ĠKut	40323
Ġslurs	44981
Ġspreadsheet	30117
Ġtabs	22524
Ġelic	25487
Ġsoundtrack	21751
Ġisol	7010
ĠSeries	7171
Ġceramic	37973
Ġdefic	12630
ĠMRI	30278
Ġtranscript	14687
ĠDarwin	21450
ĠQualcomm	32903
Ġautop	22320
Ġmedi	16957
ĠYellowstone	47257
cade	46395
ĠHo	9544
Ġpayments	7524
Ġcrou	33838
antasy	34921
Ġsustaining	37791
alan	25786
Rust	49444
ĠDumb	42989
ĠOg	25686
Ġdepartments	13346
uv	14795
ĠChao	41024
finals	32089
Ġportal	17898
ĠTrailer	36923
Ġballoons	35485
JS	20120
Ġlol	19462
Pet	25803
football	15914
ĠConversely	34511
ĠMon	2892
ĠEag	9789
ĠRespect	42153
ĠScan	20937
Ġmagnitude	14735
ĠPeach	33230
Ġcuff	47291
Ġplain	8631
Ġbelievable	41632
water	7050
Ġcarried	5281
????????	35709
Ruby	32101
Gordon	47073
adi	9189
enty	3787
Ġinternal	5387
059	46712
ceed	2707
ĠAlabama	9266
Ġluckily	45120
Assistant	48902
ĠHTC	22063
akings	45665
oho	40950
ĠLLC	11419
sid	30255
Ġwhopping	27833
essed	6676
Ġsorrow	24140
Dan	21174
Ġcherished	41238
ized	1143
ardi	22490
Ġenormous	9812
Spirit	41910
Ġspiritually	45319
ĠDaesh	40935
ĠRemem	42898
allic	18196
olog	928
ãĥķãĤ¡	41939
Ġawa	14908
Ġprincip	26303
Ġopener	21996
iel	8207
ibaba	37541
rings	33173
ĠStrip	18508
ĠHungry	42939
Ġsimplified	27009
ĠFiction	26756
Ġgrapple	42146
Ġplateau	38008
Order	18743
enary	21629
ĠEffects	17417
Ġtransfers	16395
Ġsteam	13324
party	10608
colored	25717
Ġreb	3405
Ġnavig	20436
Ġreconstruction	25056
Last	5956
Ġ???	34913
ĠTol	20054
ĠGovernment	5070
INS	20913
ĠAbdel	38758
zsche	37467
ĠKeys	26363
Ġinvol	1876
Iterator	37787
brand	17938
is	271
ĠPasadena	41010
Ġplurality	36325
Ġpolitical	1964
642	41290
Ġcorrelate	39684
Ġqualify	12780
ãĥĦ	41115
itton	47304
Ġ338	40736
ĠApollo	17508
Ġliberating	48291
Ġsailed	33835
conv	42946
Ġacupuncture	48647
antics	29320
ĠScare	47605
Ġsplit	6626
irection	4154
ucer	48915
shi	44019
ĠClaudia	50214
Ġhell	5968
Ġ1840	47784
Ġwritten	3194
year	1941
Attempt	37177
cue	15509
melon	45690
Ġdecap	44736
ĠFlyers	30652
033	44427
Ġextra	3131
Ad	2782
cru	32838
estate	44146
chart	40926
racted	20216
ancel	21130
Ġdue	2233
Ġtownship	42823
Ġpencil	21613
ĠTok	9453
Ġinnovations	25438
qualified	22557
Ġquality	3081
ĠCO	7375
Ġcm	12067
priced	30883
int	600
retty	16100
ĠMalt	23729
ĠMcGee	45476
vered	21917
007	25816
anian	38336
ĠPOP	37586
ĠImprovement	33764
ĠRL	45715
Ġauthorize	29145
Ġcampuses	23003
Ġconclusions	13242
Ġecology	36517
Ġextravag	36827
Ġhistor	3752
ĠFurious	41018
Ġhypotheses	35125
ĠNicol	40513
ĠSor	15423
network	27349
obal	2572
Hat	40483
Studies	45833
Ġ76	8684
Ġoutpatient	49335
DM	23127
Ġunderest	20164
ophy	16982
Ġrefuel	47874
ĠGarg	39013
ares	3565
perse	38696
176	24096
Ġ1933	26539
ĠJugg	39296
Ġculture	3968
ĠChilean	48014
ĠFor	1114
ĠSquad	11630
048	47202
Fer	43362
ĠDebate	41029
ĠEDITION	39219
ĠTonight	27117
ĠWho	5338
Ġlicenses	16625
Ġoriented	25921
bilt	34508
ĠOnt	9463
Ġwrest	10419
Ġund	3318
negie	32360
Ġbooking	25452
Ġearly	1903
ĠClaire	20758
ugen	42740
About	8585
angel	8368
sted	30679
axy	6969
ĠGall	7096
Ġreim	21123
516	47493
Ġ295	34772
179	21738
Ġbelieve	1975
amaz	45983
acky	36053
Ġsuperiors	41557
Amb	35649
ĠCorrect	22941
ĠJinn	48653
Cam	21701
ĠLank	44824
Ġco	763
Ġfossil	12584
Ġdeadliest	39268
ĠBas	6455
/,	47454
ĠDISTR	34957
ile	576
media	11431
Ġideally	30274
Ġendeavour	47054
ĠRafael	31918
Ġnotwithstanding	29951
Ġtrib	8433
Ġdisbel	23935
é£	45617
Spring	30387
Ġhelmet	14335
*:	47026
ĠInsp	25300
Ġjury	9002
Ġking	5822
ĠTurnbull	26445
oslav	26388
Ã±	12654
ĠTina	35903
Ġdwarves	40158
eston	19115
ĠMoh	9719
Ġthugs	35052
Fra	49562
ong	506
Ġ(_	44104
received	47844
ĠWisconsin	9279
Ġheap	24575
Ġstreetcar	49552
Ġassistance	6829
ĠShore	25759
ighters	6261
2009	10531
Ġbudgets	21011
ĠInside	14384
ĠAthens	21891
Ġbowls	34796
Ġbeyond	3675
Ġinvoke	26342
Ranked	36713
ĠIPv	25961
840	40675
builder	38272
Ġstale	39985
ĠDISTRICT	45057
ake	539
ĠTide	31105
Ġcrashing	21899
regor	32288
shr	36007
communications	20860
Ġpictured	17915
Ġconfusing	15337
Ġmul	35971
Ġpredecessors	27677
thodox	12836
ussie	43480
ĠLGBT	9916
Ġhundreds	5179
ĠTemplar	41741
Ġshooters	26191
Ġclot	5148
ĠSilver	7698
anco	47699
Ġmembership	9931
Ġproponent	42461
Ġglyph	25874
Ġsake	11060
Ġtraces	20675
ĠVulcan	33402
Ġdrains	44368
Reb	28951
Ġboiling	24372
Ġrestruct	27596
Ġdab	45553
enton	26673
Ġ1927	36565
ĠWarfare	20745
ec	721
ĠDisclosure	41806
ĠSuns	29139
oths	27118
Ġembryo	39880
ĠAS	7054
Dam	14550
Ġdepressed	19095
ĠAur	15412
trump	40954
celona	14308
730	43916
ĠTerms	17637
quire	29782
Offic	12710
wives	35234
Ġ[]	17635
Ġcorro	26132
ĠExplicit	11884
Ġdevastated	25074
Ġgreater	3744
Ġhires	37097
Ġincre	1253
Ġinterfere	18135
Ġjud	2553
intendo	8773
ĠFootball	9957
ĠFranÃ§	40178
eno	23397
ground	2833
Jean	38248
States	42237
ĠBDS	33741
Ġknowledge	3725
Ġforum	10041
Nusra	39294
Ġlively	29696
ĠTake	7214
Ġital	46127
ĠThai	18933
Ġmelt	16867
Ġpowered	13232
Ġwatches	16860
Ġcheated	37264
oliath	43009
Ġwealthy	11574
Ġworlds	11621
idated	41475
Ġcontradicted	44853
excluding	42218
ĠMurd	20305
iggs	20340
Ġpopulous	44042
ĠCarbon	23699
Ġshelters	23629
ĠRAD	33540
Ġ());	38377
damage	28735
Ġcircumstances	5917
ĠKon	17431
Ġtumor	22359
washed	45462
ĠRothschild	38198
ĠAzure	22134
Ġrooft	27291
ĠCas	11294
Ġann	1529
Empty	40613
ĠRadiant	34145
Ġenchant	23260
Ġwitty	45466
pez	46057
illas	25314
Ġpartner	5212
edes	37507
ĠAuthent	31885
ĠSpider	12648
ĠJapan	2869
ĠMaine	15080
Ġcosmetic	27284
card	9517
ĠMaurit	46106
Ġdazzling	41535
Ġdisagreement	25800
ursday	3479
Ġextinct	28881
Ġlinks	6117
ment	434
Ġadvertising	8560
Ġnecess	2418
Ġorg	8745
yna	46434
Ġbenchmarks	31747
Ġescorted	30037
ĠReality	22520
Ġmodesty	48740
illian	37896
ĠAmbassador	20656
Ġapologise	39012
htt	2804
Ġepile	29790
134	19880
Store	22658
od	375
ĠBear	14732
imens	12117
167	21940
Ġ1954	24718
Ġattraction	17416
Ġexits	30151
ĠSymb	41327
Ġratings	10109
ĠInvestments	46568
FML	34708
raw	1831
Ġsuspending	47499
ĠPost	2947
Ġthrott	46692
ĠSUB	28932
ĠEly	45913
aker	3110
Ġstopping	12225
lest	32712
overe	33518
ĠButcher	39680
See	6214
ÃĥÃĤÃĥÃĤÃĥÃĤÃĥÃĤÃĥÃĤÃĥÃĤÃĥÃĤÃĥÃĤ	14827
Ġ297	41103
ĠSERVICES	49254
Ġsickness	26359
ior	1504
icas	44645
ĠSocial	5483
ĠKernel	32169
Ġopportunity	3663
ĠFacebook	3203
oola	10513
ĠTrop	25491
Ġunderscores	41731
jp	34523
ĠCuban	18147
ĠMaker	21521
Ġhind	16222
erie	18287
¯	107
Ġkitchens	48184
Ġprogressive	10393
ĠLucy	22162
Ġtrained	8776
riger	18096
ĠCarnival	40886
Posts	21496
ĠCob	14828
Ġfighters	8486
Ġinsane	13251
Ġori	22812
Ġselective	21792
Ġpopulated	22331
Ġwound	11699
Ġstretched	19110
Changed	31813
uilding	6963
ĠHolmes	17628
Ġresearching	24114
Mot	47733
ĠEleanor	45566
GN	16630
ĠHide	10415
Ġconsolation	45194
Ġtourists	15930
factor	31412
oodoo	36038
urity	1684
ĠMinotaur	40558
ĠYears	13212
Ġlogic	9156
Ġresumed	28291
Ġ********************************	41906
GM	15548
ĠBTC	14503
Ġendif	45762
xus	40832
Ġinspired	7867
Ġpitch	7078
ĠHeidi	45518
ĠDRAGON	49819
Ġattaching	39550
plot	29487
ĠData	6060
Shut	39079
Ġsite	2524
Ġdisbelief	29894
Ġsuspects	11826
Ġbacon	21385
na	2616
ĠComics	15650
Ġadversity	42628
390	25964
Basically	31524
ĠArticles	22698
Ġexalted	46683
introdu	27427
ĠTripoli	47318
Ġexpert	5887
ĠIraq	3908
Ġhill	12788
288	25270
ĠFiona	42207
ĠHeather	24253
Ġbulldo	44767
Ġcommunications	8062
Ġdefensive	6110
Ġpollutants	41824
zee	42871
ĠSG	26147
193	24943
pects	38046
legraph	16606
ãĥĪ	13298
ĠMattis	36107
ĠHz	26109
727	47760
Connect	13313
ĠOcc	10775
Ġacutely	49317
Ġbegan	2540
Ġefforts	4040
Ġfootprint	24713
ĠStarbucks	24527
ĠPeer	41139
Ġnond	30745
ĠDin	23448
Magic	22975
Queue	34991
lys	27385
ĠEggs	40433
Ġexisted	11196
Ã»	42324
Ġ1904	43785
Ġcoupled	18064
Ġminus	20208
ĠHispanic	16949
Ġaccused	5371
Ġelephants	25368
hn	21116
Ġcontemplate	39248
nn	20471
ĠDenise	43596
Ġorganisations	16435
Ġperforms	17706
Ġtwist	14528
Ġwhenever	8797
outhern	4927
1982	30763
Ġopened	4721
Ġreacted	22798
Richard	22245
ĠMonarch	41768
ĠBoh	44366
Textures	39860
icked	9484
ĠEnhancement	50230
Ě	214
ĠHO	40115
ĠHue	31788
Ġdriveway	33515
Ġfries	31757
060	41322
Ġtaking	2263
Ġchop	30506
ĠShake	41113
attr	35226
Ġradicals	32842
Ġsophistication	44809
Ġdru	37215
Ġsuspected	9885
Ġmorphology	46320
Ġsatellite	11210
Ġunsolved	48180
cking	44377
aah	37500
ĠAfghanistan	8037
987	44183
ĠMadden	38920
Ġavail	29107
Comm	6935
ĠDalai	41180
amia	49442
apping	5912
sels	14002
lower	21037
Ġ,	837
Ġ196	28817
ĠPact	41460
ĠVaugh	30856
Ġhorrific	19447
ĠTire	45942
served	45852
ĠBoxing	35921
ĠReturn	8229
Scient	23010
Ġeighteenth	45592
Ġfilmmaking	49291
Ġlabs	27887
Ġreacting	33413
Ġsong	3496
ginx	42822
Sk	15739
null	8423
´	112
unning	16596
fitting	32232
Ġ501	24555
ĠGrey	13980
Toronto	31359
ĠClair	48195
ĠLouisville	21525
ĠRating	12028
ĠBridgewater	48218
pause	32125
ĠEQU	46886
ĠRoses	41244
Ġacknowledges	23477
Ġiii	46955
ĠTasmania	46896
Ġcommunicates	48556
Ġration	36535
Ġsemantic	37865
RI	7112
YOU	36981
entious	43787
inical	32352
ensor	22854
Winter	35376
olkien	31052
Site	29123
edIn	20801
utory	17957
rug	2143
Ġ44	5846
XXXX	24376
ĠBlumenthal	44888
ĠDro	21045
ĠSchool	3961
Ġaccur	4431
ĠAnswers	42612
Ġassoci	2570
ĠMajesty	25788
Ġencomp	20504
Ġteenager	15287
Ġwalk	2513
ãĤ«	21763
lig	4604
Ġmillennials	30418
apego	40561
ĠJedi	16147
Ġ1930	15533
Id	7390
nov	37302
ĠAw	5851
ĠMines	33466
Ġloading	11046
Ġtariff	36427
Ros	35740
Ġteammate	20052
fruit	34711
ĠOprah	47857
Ġon	319
urrection	21384
Ġexercising	25352
Ġdefin	2730
ĠRecipe	26694
ÑĢ	21169
"âĢĶ	15327
Ġarrivals	34462
Ġglim	16323
aryn	38621
Ġadministration	3662
Ġdigs	46561
Ġsulfur	37402
Ġwhims	38411
Ġcage	17186
ality	1483
Ġdisgusting	23374
Ġnefarious	42079
ĠJustice	4796
Ð	140
ĠMultiplayer	39759
Ġdecre	5255
Ġdetractors	45642
ack	441
................	4181
Ġcountryside	25708
Ġemotional	7016
Ġfinishing	12848
iency	6160
ÏĦ	32830
Ġapprehend	30200
Ġcop	2243
Ġsuperhero	17343
hovah	33023
rey	4364
vertisement	4060
Nonetheless	43258
ible	856
Mur	23830
begin	27471
iner	7274
ĠJennings	30593
ĠNietzsche	40258
Ġbad	2089
Ġpersists	35545
Ġsalon	46608
verbal	46953
eps	25386
Ġhired	9657
Ġsurf	9053
Ġdiscreet	38724
Ġfitness	13547
Ġonstage	38500
Ġyes	3763
ĠFolk	36111
ĠSox	17689
lude	38792
ĠMonteneg	50008
itement	12559
ĠProfile	13118
mission	3411
ĠThen	3244
eatured	20980
Jam	30380
Ġloudspe	48792
Ġplayable	22469
198	22337
ĠTwitch	23835
Ġdungeons	33062
laden	35668
Ġmould	35370
Ġmattress	33388
ĠMAN	17254
flying	45928
ĠCatholics	21374
ĠWP	28993
Ġeducators	30770
Ġvar	1401
ĠCategory	21743
Ġderegulation	50202
Ġ700	13037
32	2624
ANS	15037
ĠSources	26406
ockets	11603
ĠPione	27507
ĠTODAY	20092
ĠBeaver	42746
params	37266
Ġapplause	28445
Ġpledged	16387
Ġwaiter	46612
Ġtraged	12208
phe	36335
ĠÂ§	8460
ĠKl	14770
ĠSign	5865
Book	10482
Ġarsenal	24375
Twitter	14254
Ġknocked	13642
SELECT	46506
ohydrate	46358
rell	11252
ĠFriendship	39993
Ġepisode	4471
list	4868
Ġreceivers	19137
ylon	15158
Ġflora	48037
Ġtotaled	39398
370	20167
Sean	26408
ilus	35815
mir	10793
Ġcolours	18915
Ġreconstruct	31081
gradient	49607
Ġrules	3173
Ġwand	11569
glass	20721
156	21599
mate	9830
Ġphases	21164
rette	42908
ĠStone	8026
IE	10008
Ġundercover	23557
ĠIll	5821
ĠBh	16581
Ġimportantly	11003
Ġsunset	26428
Ġback	736
Ġgalleries	38462
ĠBowie	29989
ĠDest	8145
ĠMoto	23049
coal	25140
Ġcommitting	17222
Ġsurgery	8185
ĠShap	29198
Ġ{	1391
erion	28019
ido	17305
ĠElias	41462
ĠOmaha	37053
ergy	26079
Ġalcoholism	46526
ĠAnglo	27525
Ġcontracts	8592
Ġgradient	31312
ĠIllustrated	36000
Ġsuffers	21046
defined	23211
description	11213
Ġextending	16610
Ġpersonal	2614
uu	12303
ĠManuel	25995
Ġnarc	16946
test	9288
Ġdialogue	10721
crete	38669
Ġunite	24558
anguage	9000
Ġconnectors	34472
Ġprized	37768
Ġcohort	20812
ĠDepend	37947
Ġ1991	10249
Ġgesture	18342
158	21273
ourge	14501
113	16616
ĠApply	27967
ĠBlair	18520
Ġweights	19590
ĠFig	12138
ĠFenrir	39394
sett	17744
485	32642
iberal	16813
ĠUzbek	42619
itated	13939
ĠFRI	48167
Ġcompetitions	24174
browser	40259
Ġfused	43954
Ġ356	44552
ĠSparkle	41614
ouston	6526
ĠNancy	18496
Ġ["	14631
Ġethic	29520
Ġinitialize	41216
Ġwre	30154
Ġyo	27406
Ġmilestones	41926
ĠKushner	24743
Ġstarving	34253
Ġcoupon	34990
acterial	44965
BILITIES	49516
Ġrelate	15124
ede	18654
idad	32482
Ġcommenced	32400
white	11186
ĠDATA	42865
ply	2145
rha	30268
ODE	16820
ĠPrinceton	23173
Ġ1962	20033
Reviewed	40266
ĠBrom	31455
ĠRs	12820
every	16833
Ġcircum	4456
graduate	17680
v	85
ĠIf	1002
Ġdesperately	16459
ĠJudd	49554
ĠTue	30030
Ġmisleading	15850
Ġgrill	29901
Ġpurse	27517
Weapons	41818
memory	31673
dds	33714
odox	11430
Ġfists	33053
ĠImagine	18450
Ġ666	43364
Feel	35114
ĠBac	35583
ĠOmni	44251
community	28158
imentary	39051
ĠProcedures	43698
ĠRec	3311
Ġaroma	31242
Ġfederal	2717
Ġconversion	11315
Ġfunn	36090
Considering	40475
Kid	48374
Ġ190	19884
Ġeditors	15719
Ġhistorians	21262
velt	18065
Ġlaughing	14376
UC	9598
UK	15039
ĠSang	30043
ulators	24325
Ġinexperienced	38003
SI	11584
Ġlitigation	19284
Ġobst	9710
Ġovershadow	35562
Ġannoyance	38650
Ġtactics	10815
ĠSketch	17001
Model	17633
ĠMonsters	21464
ĠUses	36965
Ġcrowned	37492
container	34924
ĠAvatar	26703
ubi	29603
Ġdetection	13326
Ġinferior	18536
large	11664
Ġnor	4249
ILE	41119
364	26780
Ry	46987
oooo	13321
rehensive	36321
Ġselfish	20363
ĠDan	6035
Ġwakes	34267
ĠCOR	23929
Variable	43015
æł	43718
Ġascended	44440
Ġantip	32867
eat	4098
Ġworkaround	46513
ressed	2790
ĠThat	1320
Ġsubur	13150
Ġdismiss	6735
Hay	31306
andise	18888
ĠGirl	7430
ĠÄ	34754
Ġrecurring	24824
Ġscr	6040
Ġobj	26181
ĠCham	37790
Ġdemocratically	48517
Ġtransmitted	18307
Match	23850
ocks	3320
Org	46808
ĠVMware	37754
Ġcropped	48998
Pand	47206
ĠBeef	35309
ĠPathfinder	37025
Ġslips	33841
Pod	41565
Ġ283	42032
effic	24531
tf	27110
unte	6311
killer	32156
osit	7434
ĠExc	25268
ĠMarcel	36547
Ġexpired	21350
Ġrecognized	8018
Ġintrodu	3120
Ġvil	39796
Kenn	39324
ĠPT	19310
ĠJae	34521
ck	694
ĠEdmonton	21165
Ġste	2876
Ġtense	20170
Ġgrass	8701
sd	21282
umbo	29309
ĠGap	33899
Ġbug	5434
Ġdeclaring	18684
ifference	33012
LI	31271
Ġ),	10612
ĠEthiop	23230
Ġdisabilities	19358
Ġobstacles	17648
Ġ(>	45160
Back	7282
Ġcitations	33499
Ber	24814
Ġpods	37185
Ġunconscious	14917
leg	1455
Nar	40059
Ġvolunteering	41434
Ġcurtains	41160
annot	34574
Ã©e	22161
ĠAy	13709
ĠMeditation	41616
ĠRhino	47759
Ġreclaimed	50225
ravel	25843
Ġadultery	38713
ĠGarner	37383
ĠCirc	7672
Ġtavern	42488
df	7568
483	38783
Phot	27248
ill	359
ĠTick	46093
REP	35316
Ġdisks	32505
zhou	38536
Ġengineers	12037
Ġmarsh	22397
Ġinsure	38976
ĠMit	11707
anted	4126
Ġcrafts	28229
Ġunchanged	21588
bus	10885
usher	34055
ĠWeed	43912
ĠDas	29533
Ġaxes	34197
Ġaddress	2209
Ġmisses	18297
446	27260
Ġoverheard	48255
Ġthorough	9321
Ġratios	22423
reci	29102
Ġtrope	32463
istar	47229
Washington	17402
phis	18691
Ġhaunting	36660
changes	36653
day	820
Ġ143	24356
ĠBore	45409
ĠKand	50224
Ġludicrous	35214
Ġscared	12008
444	30272
Ġfol	5955
GY	31212
Ġdisturbing	14851
282	32568
rak	17716
Ġcommit	4589
pires	17833
Ġempowerment	39309
009	28694
ĠNoon	41035
ppard	43988
-'	19355
Italy	45001
Ġ1924	37547
560	34135
Ġ257	36100
ento	50217
Î³	42063
endon	43153
ĠHos	30789
ĠTaxi	49227
Ġcrypt	8194
Ġdefence	9366
Ship	25586
roup	3233
Ġdocumentaries	43014
tymology	43408
ĠPunjab	33328
Ġwallpaper	39328
Ġscraping	46743
ĠSeason	7369
ested	7287
Ġ['	37250
ĠFritz	45954
secut	4552
Ġinviting	23310
Ġconfrontation	19207
Ġensued	38597
Ġtul	48373
455	30505
ĠDavies	26618
cause	25587
ĠViews	29978
Ġsparks	38306
sold	24120
ĠBoom	31824
Ġmut	4517
Ang	13450
?]	26398
ĠMigration	36991
Ġnominate	40376
KR	30758
Ġpromotion	12148
,,	9832
503	31938
ĠMov	44795
aches	3694
Ġabsorbed	19233
ousands	19983
ches	2052
Ġcoinc	11194
Ġeight	3624
ĠDeter	45559
Ġveins	32375
alsh	22114
inventory	24807
oÄŁan	48030
ĠComfort	45769
ĠReset	30027
ĠOlympic	11514
Ġchicken	9015
Ġstabilized	44945
417	38547
ĠãĤµãĥ¼ãĥĨãĤ£	45544
cknowled	33165
Ġcrawled	45668
508	33042
ãĥĸ	24001
PAR	27082
thinking	28973
Ġbear	6842
Otherwise	48059
Ġprepare	8335
Ġprotector	36784
Ġearthquakes	29781
Ġpowers	5635
Ġheadphones	22537
Ġrevised	15556
ĠWitcher	36018
Ġsketches	34035
ĠComb	14336
ĠJPEG	48561
ĠEh	31480
ilit	6392
ĠPar	2547
ĠSeg	31220
Ġpainfully	32258
ĠBishop	16559
ugar	35652
ĠInspection	47115
ĠMuslim	3765
matically	49454
ĠDerrick	32979
ength	3286
776	39509
ĠNFL	5134
Ġunexpected	10059
553	48096
ĠKoran	44097
ĠSadd	20454
nery	35865
ĠSomers	39879
ptic	17459
ĠWeird	34097
Ġdefended	13768
144	18444
cially	2131
Ġ777	35534
uca	43120
ĠYs	43740
Ġdismantling	41928
ĠiT	4748
Ġdeepen	46409
MD	12740
Ġpoll	3278
ow	322
kers	15949
ĠMinion	43786
omed	12657
Ġhated	16563
ĠMohammad	29674
actic	12009
ĠTAMADRA	41297
Ġcozy	37438
Ġcrow	37593
Ġintuitive	19933
Ġnightly	37862
arios	13010
athom	32910
ĠSom	9995
Ġpanic	13619
Math	37372
Ġsole	6195
Îµ	30950
Ġcitrus	35405
Ġtabletop	45052
Ġglove	29144
Ġhighlight	7238
Ġsellers	23531
Ġtastes	18221
Ġspacecraft	16807
Bott	28653
ĠMercer	38146
Ý	153
unny	16948
Ġembarrassed	21100
Ġminimizing	41366
Ġslog	25801
unct	16260
ĠUtilities	41086
atted	16898
aneers	33547
ĠINTER	23255
Ġ114	17342
çķ	45911
all	439
continental	35415
ĠCrist	24568
NOW	45669
Ġfancy	14996
pret	5310
appa	20975
ĠRE	4526
ĠSecondary	29521
ĠStanford	13863
ĠUNESCO	49372
Ġdocument	3188
Ġinstitution	9901
Ġfreezes	44389
Sing	29974
Ġintimidation	27341
Ġpessimistic	46392
ĠAki	48663
âĢ¦.	11580
ĠMalcolm	20002
iami	7871
Ġcomfort	4467
Ġoversight	15662
iso	26786
Ġmo	6941
ĠDuffy	35829
liter	17201
ĠNi	11556
a	64
653	46435
Ġaccompan	10600
Ġbio	13401
Ġnovice	38751
Ġorders	6266
onian	27625
Ġproverb	36950
ĠLenovo	40269
Ġraping	34638
Ġspying	23649
Ġbeginners	31729
olyn	34742
aler	36213
Ġsuicides	32776
Ġthemes	13460
Ġtop	1353
Ġvolts	46297
ĠFresno	39927
Ġ"@	44212
ĠCod	18720
ĠSkywalker	29715
orc	24449
Ġdisrupting	37915
Ġimpossibility	50097
Ġnano	38706
Ġhyster	24258
Ġstumbling	37829
Ġdiscontinued	31349
Ġcurrencies	19247
ĠCarly	35982
Ġsweetness	32073
Redd	32259
AST	11262
ĠGained	34775
Ġdeck	6203
emonium	33044
Ġnationalism	24436
Ġdefinitely	4753
raid	7086
581	48630
ĠAthena	21341
Ġprecipitation	32025
Ġboat	8848
photo	23074
ĠNew	968
pson	8430
ocrine	38658
ĠBrookings	44924
ĠWalk	6857
Ġlick	36728
EST	6465
Ġbelieved	4762
Ġdosage	35997
Ġslack	30740
Pract	49515
Ġaccessibility	28969
Ġcoalition	9906
Ġ480	23487
aka	8130
Ġribs	27105
Ġthought	1807
Ġdile	22825
ĠCart	13690
second	12227
attach	47348
Consider	19626
ĠGaza	11010
Ġargs	26498
INO	46016
ful	913
ock	735
Ġexacerbated	38337
Method	17410
ertation	42245
Doctors	47087
ĠCEO	6123
Wide	42559
board	3526
ls	7278
ĠProvided	29750
Ġattempts	6370
Ġentails	35445
ĠChester	26943
Ġmarker	18364
Ġmeeting	3249
Ġlistener	24783
ĠScala	38334
Ġ1050	47235
Ġmenacing	39579
ĠFallen	28693
Ġmeasuring	15964
Ġjer	13665
Ġlaureate	49734
Ġpatience	16336
Ġtypew	49938
ĠBosh	42776
via	8869
ĠMedical	8366
Sword	43117
Ġaimed	8998
decl	32446
Ġclitor	48852
Ġeasily	3538
ĠReddit	10750
Ġbrightest	33871
ĠAm	1703
hello	31373
ĠDer	9626
offset	28968
response	26209
ĠHearing	34663
ania	5411
ĠTsukuyomi	43796
ĠDolphin	44576
Ġacceler	8320
Ġbutton	4936
Ġcharacterized	16264
aundering	23496
Ġopenings	28431
ĠShould	10358
general	24622
ĠDiscipline	48532
K	42
limits	49196
filter	24455
Ġ10	838
ĠDumbledore	27442
ĠWikipedia	15312
ĠMayweather	38718
Ġbin	9874
Ġneuro	7669
Ġretirees	43731
dirty	49075
dot	26518
up	929
Ġknit	30495
inding	6020
250	9031
LM	31288
Â¯Â¯Â¯Â¯	8980
death	22595
Ġendless	13079
ĠZac	44922
Ġremix	34471
Ġxp	36470
ĠDrunk	42739
jah	31558
ĠGlac	42719
Ġamps	45796
ãĥ¼ãĥ	12045
Ġslow	3105
ĠRaj	13308
rugged	21901
auth	18439
ĠFunction	15553
Ġanecdotes	44662
Ġdescribes	8477
502	35126
Ġdramatically	12034
Ġcensored	43847
ĠWings	17330
ĠTeddy	29345
Ġcorrelations	35811
Ġmultimedia	40162
Ġ................	44713
ĠIgn	16583
ules	5028
Ġegg	5935
Ġphantom	36381
Ġjunior	13430
ĠHMS	44247
07	2998
Ġterritory	7674
ĠCurrently	16888
Ġhig	1880
Such	16678
ĠSmall	10452
carbon	29255
bone	15992
ĠTaylor	8121
ĠMunicip	27338
Ġeminent	37820
Ġnotion	9495
Ġsurges	47433
adays	20544
lis	27999
ĠRace	12588
ĠThunder	9850
Ġdoubts	17188
ĠGHz	26499
Ġeerie	41128
Ġportion	6903
entimes	43598
left	9464
Ġfur	9230
Ġmigr	15720
ĠBenz	47891
competitive	46131
iseum	38277
MpServer	31765
leton	10565
Two	7571
Ġ226	31510
ĠThan	17924
Ġanalyst	12499
Ġasserted	21635
Aff	35191
uty	3935
ĠSM	9447
Ġaffordable	10935
Ġclassrooms	32579
Ġdebates	15389
Ġgeopolitical	35493
Ġingestion	38382
Ġmy	616
Ġpoems	31888
Ġslows	33019
ĠÂ©	10673
stated	21989
Ġingest	26151
ember	1491
tto	33955
DK	48510
ĠXVI	49090
Ġchanging	5609
Ġmaple	31377
income	12519
util	22602
!!!!!!!!	34635
Ġcrowd	4315
70710	42877
Ġmitochondrial	32873
ĠTenth	44519
geant	30205
ĠDET	38267
ishop	10124
Ġsomeone	2130
ĠCold	10250
Ġharvesting	34102
UPDATE	16977
Ġillustrations	27128
foot	5898
ĠDistribut	46567
336	29211
wik	20763
ĠPes	38434
Ġcrotch	45885
Ġpredicted	11001
ĠUnsure	38481
ĠAlvin	49939
Ġ::	7904
vel	626
ĠOrt	31427
ple	1154
ĠWalsh	24104
Ġaccompanied	11791
Ġattained	28681
Ġprot	1237
Ġreconnaissance	39471
Ġscience	3783
middle	27171
ĠBMC	40714
Ġvent	7435
Gs	33884
Ġharass	7671
ĠFuck	25617
Neil	29354
969	38819
Ġstrawberry	41236
shared	28710
Ġunlucky	39411
Ġadren	26999
Ġunve	13581
Ġeach	1123
:{	29164
enum	44709
ĠExtend	46228
Ġchronic	10726
seys	27717
Ġstand	1302
Ġtextbook	28979
ĠTechnologies	21852
ocyte	43320
ĠDebor	35913
ĠTrend	22836
ĠFixed	10832
tt	926
Ġequations	27490
Harris	41589
Plan	20854
Ġabbrevi	37640
ĠZoro	42840
ĠContribut	25767
Ġconferred	39376
ĠSparrow	49745
ĠHank	24386
Led	42416
tical	22869
few	32146
ĠSB	18056
Department	36261
ĠUg	24384
umerous	31385
Column	39470
ifty	24905
oil	9437
Ġcro	6763
ĠSto	22025
Ġemotionally	17991
eming	46564
perate	30052
Ġdonors	13334
ĠHermione	19959
izations	4582
Ġtwin	15203
bow	8176
Ġlabyrinth	41553
Ġropes	31001
username	29460
Ġhol	6039
Ġunfortunate	14855
ĠNut	11959
Ġcolder	38427
ĠLux	17145
driven	15808
ĠFunctional	44224
Ġexpressing	16621
Ġconcoct	46789
ãĥ¼ãĥ³	31708
social	14557
New	3791
RANT	32506
iped	46647
ĠAppro	20010
anta	4910
ĠInternet	4455
Ġfence	13990
Ġjeopard	22451
Ġtrimmed	40325
ĠScarlett	45046
Ġuninsured	32736
ĠDual	20446
ĠMagnetic	44629
Ġimpulses	37505
Ġenjoyable	20050
Ġbo	1489
Ġmuseums	30794
Ġrinse	42145
Ġearners	37342
west	7038
Ġhotter	37546
Ġhamb	41478
Ġtox	8293
Ġbags	11668
ĠAmit	48148
ĠRNC	37570
Ġanimal	5044
Ġcoaches	11070
walking	44065
Ġfest	15292
ivals	10336
Ñı	40623
Ġprove	5879
ĠCab	15976
Ġsequential	35582
ortment	33920
ivably	47994
Bind	36180
urated	49293
axe	38231
ĠContinental	30462
Ġinstructor	21187
Ġknob	36842
Ġuproar	40741
ĠPupp	20926
lando	11993
ĠModes	42082
rolet	33087
ĠGraham	11520
ĠKnox	27633
First	5962
nesses	47556
Ġdisplayed	9066
Connor	27136
rill	20190
Ġportrays	44771
assadors	33429
kos	46150
Ġblatantly	39340
Ġhypnot	36580
Ġgained	8618
ĠMohammed	19773
len	11925
when	12518
BILITY	25382
âĢ¢	3581
orde	17531
Ġ0	657
ected	11197
ĠDirectX	37017
ud	463
Ġlearned	4499
Ġspecification	20855
OLD	15173
arently	13773
ommod	8641
Ġrelieved	22598
Ġtherm	21969
Ġtot	2006
356	32066
Ġliberal	7270
nell	10076
ĠStand	5751
Ġintends	19582
ĠProl	44157
Ġoutlined	16493
Ġammonia	44957
Ġlinem	22774
Wait	21321
Ġtennis	20790
These	4711
Ġplatinum	36516
540	35005
ĠKong	9071
this	5661
ĠBio	16024
Ġautomotive	29393
Really	26392
ĠAFB	43827
Ġhoped	10719
seq	41068
ĠAmericans	3399
Ġembry	20748
poral	35738
ĠGen	5215
Ġtherape	20094
Ġsurgeries	33624
ĠClubs	48901
ĠCode	6127
Sullivan	47572
slow	38246
Ġpunk	22782
Ġreaff	30384
ĠAgain	6521
ranean	16474
ĠEditorial	39525
ĠHandling	49500
During	7191
ĠMaur	18867
Sem	13900
agy	46671
payers	45773
hene	29473
ĠForest	9115
ĠSacramento	19375
Ġrespir	21483
localhost	36750
Ġcomplementary	32150
Ġenzymes	29120
Ġsensing	34244
BR	11473
Ġsociety	3592
Ġstriker	19099
benef	36934
ĠBrazilian	17036
itivity	11365
Ġcel	18725
Ġhow	703
Ġsweeps	46778
EU	19684
Ġunacceptable	18010
ãĤ½	47559
ev	1990
HB	32886
ĠMister	43438
consider	44353
Ġchoked	39283
Ġinclusive	19889
ĠAble	45349
ĠCouch	48225
Ġconfront	7239
Ġhen	30963
Ġ:	1058
Ten	24893
Ġleader	3554
ĠCharles	7516
Australia	27429
Ġprivacy	6782
Ġarra	44723
ĠAdvent	33732
uxe	18095
BOOK	39453
æĺ	23626
Ġdescrib	2225
ĠOccup	15227
ĠMW	29961
():	33529
Ġinjecting	41750
atic	1512
ĠChap	15954
ĠmM	47676
Ġpp	9788
Ġunint	17679
unci	49652
ierra	16367
Ġcertainly	3729
Ġdirect	1277
Ġblazing	37019
unn	20935
ĠControls	36357
biz	42189
ĠWB	36245
Ġcommentators	25699
Ġconstructed	12006
Ġcur	1090
Ġleaked	14109
Ġvein	27208
rush	37357
Ġgrad	3915
ĠTurk	8484
ouring	21823
detail	49170
ĠEP	14724
Ġbox	3091
901	46815
urgy	38140
IUM	41796
Ġslash	24632
ĠHits	28626
Ġ630	44505
311	36244
605	32417
lesi	36027
gins	29878
ĠCost	6446
oss	793
Ġgulf	41593
Ġmac	8352
Ġstere	10268
Ġtechnicians	33519
Ġenslaved	39216
Ġsandwich	20433
Ġmyth	7918
Ġtaught	7817
Lean	35806
Ġparent	2560
Ġprompted	12053
ĠKraken	43392
ĠCurious	44269
itiveness	31366
Ġdetails	3307
Ġresurrect	27603
Ġsubstitute	15373
297	26561
Items	23022
ve	303
Gas	39699
ĠBang	9801
Ġconvicted	9118
Ġgenesis	48861
52	4309
in	259
ĠFill	27845
ĠKP	45814
Ġcolumns	15180
ĠEmploy	12645
awks	11890
Ġheadline	16534
Making	23874
Ġdelivered	6793
ĠThib	49486
Jere	31579
"]=>	23785
Ġfoul	15626
Ġbr	865
Ġpropag	8928
420	27211
fits	21013
okers	18698
Billy	49640
bringer	48046
ĠLex	17210
olid	10180
Ġprest	16153
Ġdegrade	42962
Ġrange	2837
endered	30398
aqu	36129
ect	478
eral	1691
Ġthrilled	20536
Ġbreathed	39545
tor	13165
ĠAccountability	37159
Ġindustry	2831
Ġfaction	17710
Interest	19302
aliation	22885
urned	44866
ĠKil	19902
ley	1636
Ġintimate	16584
Ġmodular	26507
NSA	47549
Ġvaccines	18336
Spanish	43584
Ġaccommodate	15550
Ġseventy	31989
Ġrebuild	17884
Ġsmack	41014
Ġstemmed	44997
Ġtheology	24383
Ġloop	9052
Ġgarrison	45416
eq	27363
Ġgiven	1813
Cal	9771
Ġwounds	14129
Ġglyc	40232
Ġdependencies	20086
ĠOne	1881
Ġblueprint	30881
ĠMick	32722
ĠPetersen	48604
Cath	39581
Ġquieter	43880
810	40215
Ġassemble	25432
effect	10760
IN	1268
pal	18596
Ġvariations	13991
resident	8154
ĠChocolate	24777
Ġsalaries	17058
Ġpair	5166
Ġtranspired	49243
ĠLevin	32325
Ġunsub	32793
Ġstruggle	6531
pps	41799
Ġaren	3588
istence	13274
ĠEmperor	10851
Ġfian	41668
aea	44705
Ġ'/	31051
ĠBett	43599
ĠSil	4243
KC	36222
querade	33357
1007	44318
Ġplatforms	9554
AS	1921
ĠConsumption	42158
ĠKw	31767
ĠMade	14446
ĠMouth	44764
Gener	8645
Ġdynamic	8925
Ġvictory	5373
ĠRacial	42318
Ġsupplying	28099
Catal	39075
ĠCharlottesville	24756
Ġfrom	422
ĠEgg	14562
Publisher	46471
Ġassociation	8112
ĠScandinavian	42238
ĠTape	40849
Ġdisappear	10921
ulating	8306
Ġfactors	5087
Ġgh	24997
ĠRespons	20549
')	11537
Ġfermentation	35115
ĠPharaoh	42697
agus	31111
Ġincentives	16538
Tuesday	26133
par	1845
Ġinconvenience	31818
Ġtruth	3872
Ġbacteria	11492
itarian	8353
Ġtrend	5182
omial	49070
ĠEz	21034
Ġdoping	42631
registered	33736
Ġsiege	20690
lihood	11935
Ġorbital	32362
cb	21101
Follow	7155
ĠRobinson	12652
ĠGreenwich	46339
550	22730
Ġ239	32817
Ġshortcuts	32953
ĠSerious	32231
Ġrepl	2186
bury	10711
ĠNass	38742
Ġalluded	45652
Ġbitters	48666
Ġdeduction	24374
Ġgrounds	9384
Ġstructural	13204
Ġmemos	44940
real	5305
++)	29577
Ġhijacked	41554
Ġrust	17000
Ġeth	4555
Ġsubsequ	6399
Da	26531
orest	26522
ĠCPUs	32340
ĠMembership	37939
venth	20987
ĠMysterious	40981
ãĤ·ãĥ£	39467
ĠCliff	23501
ĠIntegrity	39348
ĠAlan	12246
Ġeducate	20771
2016	5304
ĠINF	45594
Ġlandmark	20533
peat	18267
Ġprecedent	19719
Ġrejoice	46201
Ġvolumes	15343
Ġ1971	16382
ĠChile	17456
Ġacadem	15574
ĠBubble	33691
Ġreprim	41929
obar	30973
ĠMatth	45524
acci	44456
ĠMeta	30277
Ġheading	9087
IRC	49060
Spot	32565
ĠCivilization	31755
ĠShoot	17011
Ġresult	1255
ĠAstron	25398
Ġlow	1877
Ġring	5858
Ġsliding	22292
Ġsparse	29877
ĠMSG	49064
%);	49563
ãĤ¬	23728
ĠAmazon	6186
ĠThailand	16952
Ġobjectively	35721
ĠMartian	32508
Ġcircadian	47771
ĠTable	8655
sing	12215
Ġrecounts	39851
ĠSakura	20574
ersion	6900
006	28041
usat	37937
ĠCent	1979
13	1485
Ġmixed	7668
Ġ105	13343
Ġde	390
Ġ"$	17971
Ġspect	5444
Never	12295
Ġcelestial	33258
tal	39240
upon	27287
ĠAnyone	17462
ĠIntroduction	22395
features	40890
ĠPrec	28737
ĠSimpl	45157
Ġchick	17943
Ġendemic	42560
Ġindexes	39199
Ġretreat	13703
Sequ	44015
ĠBahÃ¡	38218
Ġassorted	46603
Ġsockets	37037
re	260
Ġtucked	29779
672	43864
ĠHeist	50157
Ġbruising	45468
stract	8709
UGH	44004
Prosecut	34301
mother	13552
ĠCatal	16758
Ġexchanges	14525
ĠAlma	35152
Ġimmediate	7103
ĠMercy	30759
Ġclimbers	39311
Ġsensit	44752
Ġpreserve	12201
Ġhippocamp	28253
areth	26659
Ġbones	11945
Spl	26568
ĠSeventh	31848
Scot	37559
Ġticking	40212
Ġcull	37429
ĠCalais	48025
Aim	49945
ĠInnocent	44778
ĠLoaded	42485
select	19738
ĠRX	24202
Ġbyte	18022
Dear	20266
Event	9237
ĠHamp	13039
lbs	32133
ĠInstitution	29426
0200	44613
ĠBoots	28807
ĠBuffalo	14905
ĠSeems	37614
ĠSop	35643
MRI	40952
ĠOperating	24850
Ġdd	49427
Jesus	28219
794	50242
ĠFifth	19383
Ġavg	42781
Ġdonated	15863
Ġghost	10905
Ġgiving	3501
Ġdoorstep	41594
Ġlas	39990
Ġmonstrous	29100
Ġmouse	10211
Ġod	16298
Ġsar	29008
ĠMich	2843
HAM	33363
outheastern	27873
Ġarchaic	40435
ĠUPS	33513
ĠBreaker	44478
Ġignorance	17010
javascript	37495
ĠCook	8261
Ġengulfed	40997
ĠSavings	40947
ĠKS	34172
©¶æ	47490
Forge	19857
ĠFast	12549
Ġcanceled	19994
Ġpest	28064
Ġshoes	10012
RE	2200
Ġrescuing	48329
ĠClassics	40184
ĠClaude	40559
Ġoven	14361
ossus	36533
Ton	35416
Ġlets	8781
opausal	47637
ĠElves	35172
Ġsleeper	46594
Ġtoy	13373
centric	28577
Ġattractive	10966
ributed	6169
Ġfried	23018
husband	48912
ritten	9108
Ġto	284
going	5146
Ġshuff	32299
osa	8546
Ġdiets	18977
Ġsmiled	13541
Ġpetition	8853
ANY	31827
Ġmistrust	48611
Ġsubmarines	34031
apper	11463
iants	17883
Ġeaves	42174
Ġdelve	39130
Ġdifferent	1180
Ġphased	41716
ĠMormons	33003
arov	42737
ĠHUN	41041
Ġsociop	41221
798	43240
Ġmechanical	12370
ĠIt	632
Ġ768	46720
ĠMenu	21860
Ġcorrupted	26940
Ġproclamation	39862
Ġrevealed	4602
Ġprescription	15077
NOR	35510
irlwind	32785
Secretary	38541
ĠToby	37578
.(	12195
ribed	8725
Ġinternally	20947
Ġausterity	22518
Go	5247
olphins	16547
ĠLenin	22899
Ġ1915	32062
ĠCopy	17393
Ġcomposer	26777
Ġat	379
Ġrel	823
ĠKGB	40785
GL	8763
ĠDepths	21903
Ġconstrued	30816
Common	17227
olen	8622
ĠMaking	16427
ĠReduction	33396
Ġdietary	15429
ĠPI	30434
Ġescort	27675
rus	14932
ĠEdu	40766
ĠSicily	49301
attribute	42348
ĠARC	43928
West	15045
ĠJoint	16798
Ġcopyright	6634
Ġhp	27673
Ġjournalism	14033
Henry	32476
Ġonion	21670
output	22915
Ġsize	2546
22	1828
Ġattacking	9274
ãĤ¶	48458
ĠOwl	37007
Ġincomp	13352
Ġrepression	28279
Ġappe	35787
Ġrounded	19273
Ġcontaining	7268
Ġrecognise	21817
ĠFil	7066
Ġmistress	37769
empt	1791
ĠGoPro	49789
ĠCoy	26887
Ġastronomy	37145
ĠToad	42616
Item	7449
avier	19492
Sports	18153
ĠNASCAR	30774
afe	8635
financial	46921
police	38191
yahoo	40774
Ġbrave	14802
Section	16375
Ġcann	6463
Ġcontexts	26307
Ġmusical	10530
Lock	25392
ĠLew	8260
ÑĤ	20375
ĠPAR	29463
Congratulations	45048
ĠEduc	7005
431	50080
ĠShe	1375
ĠOlivier	45674
girls	36960
ĠFunk	37299
obi	13411
Ġcaves	30923
Ġemergency	6334
ĠAndy	12382
Ġhorses	14260
ĠGujarat	30311
Amy	40797
Ġroared	45615
Ġsibling	33423
Spe	5248
ĠBridge	10290
Ġspherical	43180
Ġcuriosity	20136
Ġlieu	32267
Ġmosque	18575
Ġavailable	1695
Ġcombating	40975
ĠMET	31243
WT	39386
Ġcannon	21202
âĢ¢âĢ¢	22838
asc	3372
nova	38438
Ġ1973	15674
ĠSecurity	4765
Ġ243	35989
Ġ07	8753
Ġabducted	34682
ritical	36487
Ġconcept	3721
avored	48275
ergic	19793
Ġcrusade	39856
ĠLennon	37470
ĠDortmund	36888
ĠWembley	49611
Ġ155	20708
ĠEnterprises	41253
Array	19182
Ġfitting	15830
spl	22018
Ġhail	32405
Ġmundane	30741
Ġtitanium	41284
ĠBuy	11763
ĠReps	47421
ĠTanaka	47825
Ġrewards	11530
Ġmen	1450
«	104
Few	32351
ĠActual	33520
early	11458
ĠScarlet	26620
Steel	39807
hour	9769
ĠBog	21555
ĠTrident	47907
ĠHilbert	47718
Ġjuven	18686
Ġ~	5299
Ġdrag	6715
Ġwal	6514
Ġcaricature	47346
hesion	32582
lde	35209
uting	15129
ĠNL	22879
Ġpsych	3795
Ġvote	3015
Ġfaced	7452
Ġlearning	4673
Ġwhile	981
Ġdifferently	10338
orld	1764
Ġarsen	38924
ĠPrize	15895
Ġdetermin	3416
Ġjuicy	35075
Display	23114
Iran	23798
LE	2538
Rat	29665
express	42712
ran	2596
thens	43895
Ġchlor	20207
ãĥĥ	14777
ĠAA	15923
Ġforks	43378
Ġpolit	1408
150	8628
Regular	40164
err	8056
Ġlaunched	5611
ĠAxel	42575
ĠFF	18402
Ġwondered	14028
ĠIND	24413
ĠArg	20559
ĠBatman	9827
ĠChild	5932
ĠGuinea	22777
Ġ65	6135
ĠReload	37653
Ġcompletes	32543
bons	23461
oubt	47675
boys	13202
orical	12409
ĠInclude	40348
Ġflashed	30050
Ġimagination	13843
Ġinstability	24842
ĠLevels	28248
ĠFully	40234
Ġlife	1204
ĠAuthorization	35263
Ġwow	28796
ĠADS	44784
basketball	21265
ĠBorn	18889
ĠMorgan	10805
ĠAMA	38268
azard	26267
Ġpiss	18314
Ġmagnesium	33525
Son	31056
ĠArrow	19408
557	41948
imposed	36457
Bone	49580
renches	33650
ĠHY	43624
Ġcredited	18141
Ġjail	7356
functional	45124
Ġlat	3042
Chapter	14126
Ġrecip	7450
ĵ	241
ell	695
inking	8040
Rub	21312
ĠSpecialist	36816
ĠUtt	36057
Ġexposes	32142
ĠAndrea	23174
ĠPanama	23519
Ġproposals	11628
Ġsusp	4012
Ġassignments	25815
Ġlimitation	17385
\\\\	13426
COM	9858
ĠKyr	42748
Ġindie	19907
ician	6749
brush	32680
ĠNorth	2258
ĠPlayStation	14047
tails	26404
Ġhumili	22251
Ġ21	2310
ĠPalestinians	12890
Ġconfessions	47646
mitt	20124
Ġcipher	38012
appy	7774
atana	43777
Ġantitrust	42766
ĠiPod	26915
ĠDefendants	44162
Ġtrek	30784
ĠSkull	24360
Ġdominated	13354
Ġethn	33961
itate	12027
Ġeducated	15657
ĠLighting	43150
ĠSwim	35953
late	17660
ĠPrism	35417
ĠSW	12672
partial	47172
Ġmattered	33343
Ġspo	15106
Ġ445	48655
Ġgem	16840
Ġchampioned	39257
anut	20651
ĠBit	4722
Ġforcing	10833
sterdam	22506
Ġunrelated	19938
ĠArgon	49974
Ġlightweight	18700
Buff	36474
Ġerratic	40583
Ġdrove	10357
ono	29941
Ġgenders	38054
Ġsexuality	16641
,)	35751
metadata	38993
),"	27267
Is	3792
NESS	31097
race	16740
Ġabduct	24827
Ġaudio	6597
Ġinsofar	44061
ĠTayyip	41346
Ġjudicial	13657
Des	5960
Ġtou	2819
Ġvessel	8837
sk	8135
adjusted	29117
ĠGord	39592
Ġinformed	7981
Syn	29934
Ġtheoret	12376
Template	30800
ulia	43640
ĠTheft	26822
iances	16097
ĠCJ	27731
Ġadmin	13169
rolled	8375
Ġcopies	9088
joy	2633
Ġgender	5279
Ġmeshes	48754
fully	2759
Ġforeign	3215
Ġurl	19016
atts	30353
Ġiteration	24415
ĠAPIs	23113
Ġhumming	41465
Ġparticipants	6809
Ġpharm	10113
ĠBradford	28199
context	22866
itans	43716
gil	37718
piring	12987
ĠDoyle	31233
ĠBrach	42229
ĠTac	26075
ĠTelevision	21516
xxx	31811
Ġdodged	49392
Ġinterfaces	20314
Ġsevere	6049
Feb	15146
ĠDarth	31152
ĠGPUs	32516
ĠSELECT	33493
warning	43917
Ġporous	48242
wit	39289
Ġdisplay	3359
ĠUnified	42225
ismo	44126
Ġextermination	48495
No	2949
oreAnd	40219
Ġdeploy	6061
exclusive	41195
ĠExpression	41986
ĠSoul	8653
aternal	14744
Ġcontemplated	39496
ĠCit	15792
................................................................	23193
ĠDeath	5830
Ġescalating	32206
ogi	44381
Ġpopul	16595
ĠHammond	26649
ĠItems	17230
ĠFidel	42320
Ġstatistics	7869
âĶ	6552
culture	25584
669	36657
Ġassertions	29965
Ġdriving	5059
ĠDungeons	25461
Ġsuits	14803
Ġmaneuvers	38974
asma	11797
Ġmanner	5642
Ġpolarization	42704
Particip	34363
);	1776
ĠCensus	20962
ĠTerm	35118
ued	1739
Ġfamous	5863
iting	1780
Ġpursuant	12997
ĠIntelligence	9345
Ġcalls	3848
Ġcompensation	9836
ederal	2110
YS	16309
Ġtribal	17054
ĠNatasha	41875
Engine	13798
founded	27060
rape	13484
ĠYa	26421
Other	6395
Ġlog	2604
Spoiler	31895
Ġtrunk	21427
earned	39123
Ġirrig	29344
ivism	25085
sometimes	29810
Ġabout	546
Ġcognition	31119
Ġwhen	618
Ġdrop	4268
ĠNoel	33905
Ġrelieve	26958
ĠBieber	42263
scribed	47495
ĠBarack	8732
ĠMarlins	38134
culosis	38767
RO	13252
ĠMassachusetts	10140
aux	14644
Ġforensic	23953
Elsa	49050
ĠAncient	13406
ĠRuff	42409
Ġliberties	22008
Ġoverturned	27153
Ġmass	2347
Status	19580
'.	4458
hem	4411
ĠIdle	37130
ĠJohann	28056
nex	12413
sol	34453
ĠBre	3719
ĠMachine	10850
ĠVu	35816
orama	36161
Ġcalculate	15284
Ġharmonic	49239
Ġtransmit	21937
Ġventure	13189
Ġbounce	20110
ĠCarb	20453
ĠDino	39430
Ġterminology	29191
UI	10080
stretched	49729
Ġhiber	46681
Ġsemester	24878
Ġassumption	13196
Wilson	37349
verett	33395
pathic	38829
Zero	28667
Ġmagazines	16695
Ġchannel	6518
cher	2044
ĠGob	16909
ĠHipp	33812
310	26717
Ġdawn	17577
ĠZhang	19439
Ġfavorably	40594
Ġhelped	4193
ĠTrail	13069
Football	37316
Ġbreak	2270
Ġcaliphate	48051
Product	15667
Ġgirlfriends	47094
Ġreconc	19331
Ġmeetings	8292
Ġfilthy	35677
owed	6972
rafted	30235
Ã§	16175
F	37
Required	37374
ric	1173
ĠSuper	3115
Ġstead	7978
aturation	36921
QL	9711
aughs	19256
otive	19138
ĠSpr	5522
Ġspecials	38102
activity	21797
Sund	20602
ĠExtended	24204
ĠFrag	24229
ĠStew	12194
ĠStrait	41407
Ġrem	816
Ġtimes	1661
ETH	20702
iden	14029
Ġextant	47862
ondo	22311
ĠRaspberry	24244
din	25194
ideos	4921
Ġflanked	49059
Central	30645
Ġnexus	45770
Ġproxy	15741
Ġqualification	28587
Ġthankfully	36308
Ġuntouched	36519
Ġvarious	2972
Van	25298
Command	21575
Ġunemployed	21021
Ġhiking	24522
cised	37168
Baltimore	46139
ĠContract	17453
ĠLuna	23694
Ġcampaign	1923
Ġlayout	12461
Ġinteracts	44020
Ġorally	47311
s	82
Ġcongressman	29545
Ġfrequent	10792
ĠHence	16227
ameda	49637
gregation	17097
itational	22181
redd	26504
rod	14892
jug	31761
ĠBots	40946
ĠCommunists	39049
ĠOCT	42256
ĠRav	28146
Ġexclusively	11541
ĠECO	39031
257	28676
taboola	10658
Ġflooded	21050
Ġprototypes	32338
/(	29006
Ġexchanging	39167
703	36809
ĠPrint	12578
Ġsmoothly	21461
Ġtripod	47439
Ġ2030	25054
Ġtruths	24279
ĠGolden	8407
ĠIS	3180
Ġvisionary	41740
Ġyarn	21181
Ġlaud	28907
Ġcomparisons	17909
Guide	47889
Re	3041
creat	20123
ĠDig	7367
ĠJourney	15120
Ġprogramming	8300
esta	18059
ĠFat	12301
Ġfabricated	33612
ĠRodgers	19947
war	5767
ĠPenguins	29755
ĠTalk	12167
istration	33397
ĠLAR	47211
Sec	6558
ĠLambert	36978
ĠMadison	14909
ĠZo	31645
ureen	49851
Ġatroc	22809
Ġcontractors	17736
Ġcrust	20048
Ġparachute	41015
child	9410
ĠEmergency	18154
ĠHartford	37118
rium	19172
ieved	39591
ĠUSSR	28905
Brad	30805
Ġincess	41106
Vote	37394
Ġprotagonists	39558
ĠBUS	43949
427	42363
Evidence	46785
ĠGeorgetown	31393
ãĤĬ	28255
ipl	24705
ĠLeth	34201
ĠLuther	17461
ĠRanking	45407
ĠKra	21553
ĠKB	14204
one	505
Ġcited	9181
Always	30374
Ġcustody	10804
Ġfraudulent	24627
Ġhordes	41872
Ġdisasters	24193
Ġinspecting	49889
Ġintermittent	38361
Apply	44836
ĠpH	22918
Ġrebound	23623
ĠDEM	40101
Ġreplica	30069
ĠPam	24497
eneg	46495
ĠKasich	24931
Lead	20451
ĠSaudis	33358
501	33548
ĠUkraine	7049
Ġallergic	31856
TC	4825
Western	24227
acan	50195
bots	42478
ĠVolkswagen	32991
Ġalter	8343
Ġattributed	14183
Ġbicycles	35426
Ġdispensary	50136
cyclop	22873
EL	3698
YY	26314
bj	50007
ĠES	13380
coll	26000
ĠFrancois	40419
ĠGeneral	3611
ĠTheatre	15752
Ġawesome	7427
Ġfundraiser	27639
Ġrehears	28779
Ġsprawling	30190
Ġserum	20502
ĠsrfAttach	43065
Loop	39516
Ġstarvation	32143
Ġ999	36006
Ġwhites	13216
Ġprocure	23364
ĠâĶĤ	19421
services	30416
Ġpoop	40125
Ġsuperv	29745
Ġread	1100
ĠKickstarter	14437
Nit	33772
Viol	33894
Ġlabour	10515
Ġtomato	24240
Ġundecided	39511
Ġwield	15445
Ġexhaust	12142
Ġurine	18922
Ġstump	42497
xiety	35753
ĠTexas	3936
Ġhip	10359
ĠHoldings	31681
Question	24361
ĠCinema	31535
ĠInto	20008
iving	1412
Ġfortunate	20200
Ġgroundwater	34573
ĠEpisode	7922
Ġscrambling	36502
Ġsweating	38912
Ġpump	8901
FUN	42296
ãĢĲ	31854
ĠAzerbai	29830
ĠIzzy	46359
Justice	28447
Ġentit	26189
Ġgrit	34954
Ġadaptations	35030
Ġstains	43329
ĠCoins	30108
ĠStructure	32522
ova	10071
Ġthriving	27723
Ġheater	39844
delete	33678
èĢħ	38519
hent	6925
fee	39071
âĢĶâĢĶâĢĶâĢĶ	8184
oder	12342
irty	5893
ĠAux	47105
illus	44342
ĠCait	34118
ĠCoin	16312
ording	1284
host	4774
Ġ50	2026
ĠAuburn	24579
ĠNid	46798
ĠHaas	50090
jin	18594
Ġbrowsing	23182
rices	45977
Ġchord	25594
oppable	35628
O	46
ameless	39942
ool	970
ALL	7036
kB	38841
nia	18142
umers	31260
ĠHive	33235
Ġ][	41832
Ġdeeper	9211
Ġdeval	35966
url	6371
ĠSalvador	26482
Ġethanol	28829
ileged	48446
Ġhope	2911
Ġiv	21628
Ġkissing	25847
Ġproperties	6608
Ġswing	9628
Ġtore	26197
cd	10210
hung	43274
Ġwillingly	30981
Ġapost	18584
Ġwipes	46142
Ġmanipulating	29349
Ġdiscouraging	48001
Ġimplemented	9177
overy	6560
Ġfury	26206
ĠPand	16492
ĠSaints	13048
Ġobligated	31586
arians	13517
catch	40198
tein	22006
ĠAthletic	29007
ĠGarn	30937
idget	17484
Ġresearchers	4837
ĠDru	21295
old	727
abil	14991
Ġvariable	7885
Ġvoid	7951
fix	13049
Ġnasal	40829
Ġinertia	48482
Ĩ	228
ython	7535
ĠPetroleum	39970
Judge	29511
irc	1980
Ãº	21356
orses	11836
Ð¼	43108
ĠFranz	38323
ĠGMO	35945
ĠHay	9075
ĠJet	19013
ĠSydney	11852
Ġcreators	16294
Ġurban	7876
ĠAnton	9261
ĠRick	8759
Ġcorrections	26251
Ġurgency	25615
Ġindoor	22639
Ġdeployments	40854
ĠMcCartney	44677
Ġdemoral	49077
ĠTW	17306
2019	23344
brids	40637
ĠBitcoin	6185
ĠClash	33117
ĠFrankfurt	31970
Ġpunishing	28641
inct	4612
%).	18823
loss	22462
MN	39764
Ġ=================================================================	38093
enza	23674
lime	27299
ĠJD	28591
ĠLee	5741
!!!!!	50184
LD	11163
mund	20125
Fest	45139
Ġ))	15306
ĠBetween	14307
ĠCorpse	45311
clusively	44307
Recommend	41248
ĠShepherd	30890
Ġ\	3467
Ġconn	48260
pathy	16786
sburg	30359
Ġdetermining	13213
Ġgam	9106
ĠCognitive	38655
ĠNewark	30970
Ġreceptor	17408
Ġscent	21212
Ġsteal	8711
fetched	50012
Ġwandered	36036
Ġrefill	47539
ience	1240
Ġconstituency	28280
Ġtroubled	17840
Both	10265
Register	38804
arious	27129
ĠUI	12454
ne	710
ĠEnforcement	19198
Ġmonthly	9651
CLAIM	48778
Ġtrap	12840
itter	1967
ĠSTAND	49053
Ġdeterrence	49272
best	13466
listed	17935
ĠActor	27274
ĠBloom	11891
Ġextingu	24995
Ġtrou	4057
Quest	12166
Mp	28861
Ġemanc	37672
ãĥī	13765
uggle	33498
Palestinian	35969
ĠHobby	44327
Ġinterrupts	48237
ĠGrain	48692
isable	43942
Ġtomat	23414
otech	32469
Ġreputable	40300
Ġrecycling	25914
Ġdisciples	23351
Joseph	29458
cept	984
fashioned	28776
Ġadmitted	6848
Ġresidue	35186
ĠDisneyland	36312
ĠStrange	16810
ĠBender	34535
ĠRed	2297
Ġbehold	23700
Minimum	44046
lands	4447
433	42117
Inf	18943
ãĤĴ	31758
ĠInstead	5455
ĠMyth	18900
ĠEdmund	35646
Ġbombard	35285
Ġlocation	4067
Ġreality	3950
Ġstamp	17977
ĠNorm	11220
oots	13880
uese	20506
anny	7737
algia	47111
ĠMace	48925
ĠOUT	16289
ĠSpirit	7710
ĠTR	7579
ĠSakuya	37545
Ġbooming	32017
Ġclo	28050
lane	33533
ĠCollective	29128
ko	7204
ĠGork	49882
ĠTECH	44999
Ġgalvan	42170
Ġletter	3850
Param	22973
orb	27688
ickr	18994
ðŁĺ	47249
ĠIter	40806
Ġancest	10790
Ġcause	2728
Ġcutting	7720
Ġwandering	24504
Images	29398
cache	23870
Ġray	26842
eeee	41591
Pain	38490
shots	20910
ĠQuin	29338
national	14648
Ġbetting	22908
ãģĮ	35585
Ġweighs	24034
Ġsnapshot	27479
Ġeagle	31176
833	48634
Ġbullpen	35093
Ġwizard	18731
not	1662
Ġextraordinary	11359
users	18417
ĠUnloaded	25926
inder	5540
trial	45994
current	14421
label	18242
Ġ2016	1584
ĠKirst	39700
ĠLG	17370
ISA	22312
Shape	33383
ary	560
Flickr	47250
ational	864
ĠSoci	31339
ĠTie	36286
Ġconvenient	11282
Ġdeg	3396
Ġdoctr	26865
anky	39556
ĠTunnel	35863
nat	32353
ĠBehavior	20181
Ġexecutive	4640
Ġcomputed	29231
Write	16594
Ġpup	15552
ĠLib	7980
Ġtrends	11257
Ġspontaneous	25319
Ġenlight	19128
orders	6361
Ġ15	1315
oral	6864
Ġnil	18038
ĠCapitol	13241
ĠReleased	28728
Ġcoincides	47387
Ġhey	17207
Ġsubstantial	8904
ĠHib	38315
Ġdiscrim	6534
ian	666
Ġsurpassed	30612
oln	10875
ãĤ¸	21091
0000000000000000	25645
Ġmissiles	12798
rack	39638
ĠSchl	48467
Ġmissions	10566
Ġhandset	40445
Ġsinger	14015
Ġware	16202
Ġboundary	18645
Ġancient	6156
Ġlinkage	45945
sword	30553
Ġmight	1244
ĠKham	45159
alsa	32058
Ġlesbians	34210
ĠBurg	21435
ĠPacers	31637
Asia	38555
ĠPlaying	23911
å¾	36181
ĠSinclair	34927
)),	36911
142	23726
pod	33320
ĠRJ	46642
Ġbloody	15222
Ġenthusi	11273
mor	4491
ruits	50187
)!	31520
According	4821
isle	20919
phas	5902
ĠForced	40731
ĠJoseph	7212
Ġaccident	5778
ĠServe	35557
Ġfloating	12462
Ġmurd	7847
Ġbankers	25091
ĠPrayer	33189
Ġmas	12422
Ġnamely	14811
Ġpractically	14547
FFER	45746
Ġgods	11858
Ġsolicitor	48709
bid	14065
#$	29953
arch	998
ĠRusso	46855
Karl	46063
ĠSponge	42681
1988	26709
ĠMulti	15237
Ġannexed	49181
Ġdism	18099
Ġadventures	17545
Ġmaxim	12991
apeake	49528
Ġadults	6490
inski	21141
Ġcharcoal	33512
audi	31330
ĠAugusta	46820
ĠBroadway	20617
ĠJosh	8518
aird	41620
Ġtraditionally	16083
extra	26086
ĠDoing	25327
Ġnonpartisan	42157
hak	43573
ãĥĻ	35604
ĠAssociates	29306
ĠHollywood	8502
ĠVietnamese	23618
Ġcures	50019
Ġsense	2565
Ġestrogen	30541
ĠWilhelm	50031
Ġtheological	30576
Ġwaters	10150
Ġpoaching	49879
Ġoverpower	42905
ĠDy	23524
ophone	38656
Major	24206
gl	4743
ters	1010
Ġinnumerable	45383
Ġkeeper	28356
Ġcohorts	40182
ijing	11030
necessary	49986
travel	35927
ĠRough	29949
ĠTel	12088
Ġmosquito	35446
Temperature	42492
ĠTurn	6756
Ġurging	17619
Ġturkey	26876
steel	44822
522	49542
play	1759
Ġstudio	8034
itar	7940
reenshots	39551
Ġneglected	24007
Ġprintf	30812
Ę	212
Goal	49045
lasting	24810
ĠESPN	10409
ĠQuantity	39789
ĠSVG	45809
ĠAdams	12620
apsed	28361
ĠFE	18630
Ġbelong	5594
BILL	39888
obos	49878
Ġmorph	17488
Ġbases	12536
Ġowner	4870
Ġlip	10645
cus	9042
Ġ58	7618
Ġatop	20156
ĠDance	17349
te	660
Ġreceive	3328
Ġ625	48868
ĠCareer	32619
grim	33563
ratulations	30167
ĠSuppose	39200
ĠTV	3195
Ġadvertise	32740
camp	16544
Ġconditions	3403
ĠCIS	36159
Ġdelegation	22635
Ġbut	475
group	8094
Bottom	34104
ĠDarling	49825
Ġnotifications	19605
ĠRoss	9847
ISIS	29322
Anne	43227
usalem	10555
&&	25226
Ġmoderate	10768
ĠPharm	19234
Authorities	28705
ĠCyborg	46114
bris	15311
anking	15230
driver	26230
mand	22249
ĠEthereum	20313
ĠCommercial	22724
lb	23160
heng	31753
ĠUncharted	48272
Watch	10723
815	49503
536	44468
âĢ¢âĢ¢âĢ¢âĢ¢	39967
ills	2171
ĠFriends	14213
pol	16104
ĠRuth	22132
ĠHUGE	48068
Ġastonished	40962
Ġblues	25570
Ġboun	31283
387	32220
think	14925
Ġcongregation	28862
Ġ:-)	47226
Ġforbidden	19467
resp	4363
Ġinterpretation	10794
Ġmayor	9591
Ġconference	4495
ecycle	47510
Ġconfronting	31291
athing	26927
owitz	20951
ĠMond	27328
ĠVM	16990
Ġatoms	23235
Ġcal	2386
Ġimped	26795
Ġincluding	1390
Ġskull	14511
positive	24561
Ġtexture	11743
Ġapprentices	38523
Ġtreacher	32550
Ġredress	48586
Ġinciting	47494
Ġspirit	4437
strous	22501
oso	28213
Though	10915
stre	22853
Ġdesigner	11915
Ġburial	23867
Ġoperates	14051
Ġinqu	7949
Ġscreened	32862
Ġwary	23300
Ġdelicate	19217
Ġ315	32647
Ġshotgun	18607
Ġsucceeded	14131
DF	8068
Ġsingers	39113
uppet	44933
Senator	29774
Ġdried	16577
793	44750
Ġglimps	41226
Ġfreeway	39042
onge	14220
Neigh	46445
Ġfriction	23822
ĠSaturday	3909
mal	7617
ozy	31060
livion	26018
ĠStrat	29186
Ġextrater	42024
rection	8243
Field	15878
ĠDone	24429
ĠSOC	31430
ollo	15578
pressure	36151
antage	36403
Ã±o	31329
Im	3546
ĠCe	20101
ĠHighway	14914
Ġinsulated	47869
Ġinvariably	31338
Ġlivest	20532
Ġmuscles	12749
Ġopposing	12330
Ġprovocative	28695
raught	44451
Ġfly	6129
Standard	23615
Ġgoogle	23645
ĠPOLIT	32082
Ġposted	4481
testing	33407
Gb	49017
ĠJas	21961
ashed	5263
ĠIT	7283
Ġreasoning	14607
Ġrisen	17450
Ġsubstituted	31601
Ġtailor	35280
Ġtallied	48729
Ġtraffic	4979
Ġviewed	9569
Ġsupporting	6493
"""	37811
Ġtooth	16162
none	23108
ĠRhod	22509
Ġreneg	30780
ĠNothing	10528
ĠInfinity	22385
Sleep	40555
Ġmag	2153
henko	30161
ĠMississippi	13797
Ġcumbers	44392
LLOW	44765
Ġcalming	44907
Ġstarship	48744
ĠChronicle	14160
Ġburglary	33724
ĠMortgage	45446
Ġentertained	34988
Ġcreditor	45848
Bl	3629
ĠWaste	35304
Ġcampus	7611
ĠLich	35171
Ġgrapp	21338
iak	32994
tur	36590
Ġchampionship	12184
Ġroyal	15100
ĠSuite	26264
CD	8610
ĠManufacturing	32760
ĠTian	20834
ĠSure	10889
everal	8438
Ġstarts	4940
ĠKal	12612
Ġexecut	3121
Ġdraconian	33483
aza	7056
ifying	4035
ĠHold	9340
Ġinconven	20488
UM	5883
Ġmechan	3962
onial	30752
Charlie	37136
fast	7217
imoto	43354
Ġelectricity	8744
Ġhelicopter	15392
Wheel	45307
Mac	14155
Ġos	28686
Ġvillain	16687
Ġcounterparts	16054
Ġdistortion	25100
ĠWrath	28258
coins	14624
000000	10535
Ġsubsistence	48042
Ġrepresentation	10552
CBS	22923
Ġteamed	31230
MK	33907
Ġspeedy	35564
ĠCARD	48731
Ġkay	34681
Ġhairs	32908
ĠProspect	26736
Ġherd	27638
result	20274
Ġbeautifully	21104
ĠInvestigator	49499
aiman	47840
ĠHanson	35692
ĠDOM	24121
Ġcommissioner	16248
ĠByr	24437
Ġfare	14505
Ġfeats	35664
Ġobjectionable	48540
Ġspirituality	39409
Ġwrench	34561
ĠCatholicism	46802
Ġdecades	4647
plement	26908
wic	22664
Ġtriple	15055
as	292
coin	3630
á	157
ĠAssault	15590
ĠACT	11741
ĠMUST	17191
mp	3149
ĠMek	42859
Ġtele	5735
ĠNR	23057
Ġleveraging	42389
Ġfreely	12748
shirt	15600
ĠMail	11099
Ġcouncill	25618
Ġrebate	49099
Ġconcessions	26739
Ġquo	18658
Individual	35392
true	7942
Ġmercury	27394
Ġ238	32544
compan	34390
ĠEmployees	30260
ĠNathan	18106
oice	2942
icc	44240
kees	16683
Ġ2006	4793
Ġtopped	20633
HHHH	41100
ĠPredator	38871
isks	36730
Ġgalaxy	16161
ĠBoyd	29897
ĠIronically	37731
Ġcontinuum	44422
Ġdownstairs	34624
Ġrecord	1700
ications	3736
ĠOsiris	40925
Attach	33296
umeric	39223
Ġbedrock	47856
Ġgrasp	13180
baugh	23768
Ġauthored	33941
Ġcoales	46064
ĠUlster	50026
Ġjoint	6466
Ġmarches	36963
ĠRelax	46883
Ġbillboards	46696
Ġhipp	18568
mond	6327
Ġfantas	23857
Ġshark	21027
Ġâĸ	11019
ĠEmacs	36447
lesh	29730
ĠBart	13167
base	8692
ĠQB	16135
Ġabound	41413
ĠCharl	6258
str	2536
Ġbanner	17625
Ġharassed	26775
âĢ³	12237
Ġ750	19683
stones	28750
Ġhatch	25834
Ġexam	2814
icles	2983
ĠDK	32975
ĠPokemon	14878
agree	49221
Ġinconvenient	37513
ĠViolet	37111
Ġbonded	40270
@#	41573
ĠFinnish	26838
Foreign	33616
ĠHail	42913
ĠPhotos	9434
Ġconditioning	21143
Ġmood	10038
Ġtransformations	38226
ĠJamal	46520
ĠISS	33805
Ġclient	5456
Ġcrashes	17616
Ġconditioned	31964
Way	25309
ĠCorrection	35074
idges	15969
Ġcurriculum	20583
Ġpros	10360
ĠDN	45080
ĠSymphony	33195
ĠExercise	32900
Ġhorn	12718
poll	30393
ulate	5039
ĠFe	5452
threat	19971
Ġcompensated	34304
Ġmisconceptions	45679
ĠCivic	31593
ĠDresden	46993
887	46660
gment	5154
Ġanthrop	17911
Ġstick	4859
Ġtempt	12475
Ġassume	7048
fine	38125
bits	9895
Ext	11627
Ġheadsets	44257
Its	20459
ĠCo	1766
Ġmuzzle	31746
Ġocc	1609
ĠBeg	47479
Ġcrossover	27668
ronic	4565
Ġsteel	7771
Ide	41452
Ġtatt	14399
Ġconveyed	33348
153	21395
ĠBeirut	40702
ĠLevine	38294
ĠDiagn	31549
helm	33485
Ġseminar	37634
ie	494
plete	6677
ĠPOL	20634
ĠSchneider	26039
Congress	25916
raph	1470
psey	39070
ONT	35830
ĠRx	49715
ĠComprehensive	40917
ĠGoo	43456
ĠWalmart	20355
Ġespionage	30113
yrics	14279
Ġsober	24281
reading	25782
åĬ	27950
ensibly	28508
utenant	15340
nam	7402
ĠLiang	43322
ĠNarendra	28113
cemic	40478
Ġracist	9811
Ġsoutheast	26015
chief	17351
ĠQR	42137
Cart	43476
Ġmobs	32208
from	6738
Mega	43471
Ġpitchers	25259
Ġrenovated	46353
Ġ:)	14373
ĠSieg	42970
Ġpretty	2495
rir	29283
cream	36277
Revolution	50237
oding	7656
gae	25002
proxy	36436
ĠAlphabet	45695
Ġaux	27506
Ġbarr	29069
ĠIon	36404
ql	13976
ĠKier	39717
Ġchew	34722
Ġideology	12959
Ġmeasure	3953
Ġmyths	22886
Ġreimbursement	37030
asket	11715
oat	15073
Ġacquitted	35497
Ġfre	2030
athering	25545
556	37864
umably	31303
Ġtossing	37432
viol	17069
Ġ170	16677
though	2016
ĠPoles	45631
ench	24421
ĠGuest	22358
Ġstray	28583
stay	31712
umper	15829
ĠSharif	44144
Initially	40443
asing	2313
'-	29001
fest	23411
ĠDeep	10766
ĠReaders	41969
ĠRhode	24545
Ġpacked	11856
Warning	20361
Ġroll	4836
ĠONLY	22224
Ġbeg	4123
powers	30132
river	38291
Ġquery	12405
Ġsynchronized	47192
Ġrefres	17434
sr	27891
ensical	46165
cow	8232
iably	18745
kaya	35372
staff	28120
ĠTreaty	21345
Sweet	36087
ĠWW	13505
ĠWeld	45156
Only	10049
clean	27773
ump	931
ĠRTX	45877
ĠDenver	10656
ĠGong	47142
Ġamp	20766
ĠTechnical	20671
Ġanomaly	32172
snap	45380
Ġgenre	12121
abbling	47883
ĠV	569
Ġdebating	31174
Ġimperfect	23162
Ġspouse	16731
Ġstrengthen	12160
Ġtile	17763
ĠBuccaneers	37006
MP	7378
ped	9124
rik	12602
ĠFas	38971
Ġrelegated	36391
Ġsimpl	7106
Ġunexpl	31286
Ġ2011	2813
Ġscant	35183
Ġtrove	42377
ĠLeft	9578
ĠPID	37022
ractive	35587
ĠWH	7655
Ġwounded	10657
Ġstable	8245
DAQ	46640
VP	8859
ĠNav	13244
Ġlean	10904
Pub	14876
width	10394
Ġrobbed	26773
9	24
Ġbridges	19432
reads	40779
Ġunrestricted	36263
Ġsailors	29996
amboo	27708
ĠMeaning	30563
Ġavenue	36132
ĠTaiwanese	41777
Bow	39961
BLE	19146
Li	32304
'>	44167
Ġmonkey	21657
Ġsubsidies	16230
ĠAndersen	42356
Native	31272
593	49051
tops	35011
ĠMedian	26178
Ġallowance	24930
Hu	38202
ĠWooden	40143
Ġprograms	4056
ĠDirectors	29200
amba	31842
ĠDPRK	48363
ppelin	48425
ĠSylv	24286
Ġdump	10285
Ġmajor	1688
ĠDiscussion	27766
Ġdos	23430
191	26492
OST	10892
Ġmeant	4001
argo	9448
Ġborn	4642
ix	844
Ġmounted	12623
ĠInv	10001
Ġpalette	27043
annah	25761
Ġproduct	1720
Ġpushing	7796
Ġwaive	40307
Ġyoungest	18887
Ġwindows	9168
cox	40359
fore	754
ĠEzek	45875
Ġcrafted	18025
dig	12894
Ġenforcement	5394
itia	36723
head	2256
,'	4032
orig	11612
yright	4766
panic	35843
ĠAnaly	16213
Ġholder	15762
Ġunderwent	25289
ĠKid	16828
Ġabstinence	40683
Ġbystanders	46652
mc	23209
ĠComputing	38589
unia	39934
iesel	29893
ĠDa	9637
Ġelectronically	35427
Ġgreen	4077
amd	28745
Ġnumer	5470
ĠJersey	8221
ĠDiane	26542
ĠGreece	10315
ĠMikhail	42040
ĠReceived	20557
Ġeconomical	40590
ĠKoreans	25999
Ġgrandmother	18410
ĠHead	7123
ĠWester	32104
Ġglobalization	39155
ILL	8267
Expl	18438
packed	34860
Price	18124
Ġaccompanying	19249
LOCK	36840
Ġbullet	10492
uto	9390
ĠGarfield	47218
Ġjur	8174
Secondly	44276
Ġdun	12574
Ġfraught	39730
Ġbranch	8478
Probably	34784
ĠBM	29944
ilib	22282
Ġballet	47735
3333	24840
ĠOregon	8819
ĠVote	19175
abouts	27880
Ġembell	47399
ĠTradition	45050
AIDS	39338
Ġloud	7812
Bad	22069
Ġfields	7032
Ġmed	1117
rad	6335
Ġnations	7027
Ġoverfl	32876
Ġpres	906
Ġrulings	31532
Ġstep	2239
Ġconstitutes	19300
Ġspor	35810
ãĥ³	6527
Ġ279	39466
ĠRobert	5199
ĠSum	5060
parse	29572
Ġdisguise	27487
Ġer	1931
Ġtha	28110
Ġunjust	21218
Ġwindow	4324
Ġdevelopers	6505
17	1558
ĠAden	48500
nels	19423
ĠCertified	36054
ĠInternal	18628
Ġgovernors	26824
Ħ	226
92	5892
ĠSomehow	36651
Ġ187	27649
Cloud	18839
quality	13237
ĠBill	3941
ĠDor	12528
ĠCaps	23534
Small	18712
Ġage	2479
Ġcoordinated	22080
Ġfarms	15893
Ġbiologist	35261
Ġinstruction	12064
Ġlabeling	27393
ĠClicker	44051
Ġbrands	11394
Ã¥	29090
Andrew	20508
onda	13533
ĠAscend	45387
ĠFactory	19239
ĠMerchant	33508
Ġcabinets	43064
Ġ(	357
Ġmc	36650
Ġphotos	5205
ĠVista	25160
Ġrestricting	28267
Ġindo	23046
Ġsacked	32564
Ġsubtitles	44344
azing	4070
Ġtrapped	13640
Ġturn	1210
Ġuniverse	6881
ĠAppropriations	37552
gra	46784
rol	3225
ĠSul	29357
ark	668
Ġfixing	18682
Ġknife	9845
1992	23847
Ġpasswords	21442
Ġtad	36264
Ġstyle	3918
harm	29155
hip	1056
Ġargue	7267
ĠCult	22449
Ġshots	6934
Ġhttp	2638
Ġcircuitry	42344
Pers	30946
Ġuneasy	34644
."[	18161
Ġeverything	2279
owned	11990
ĠPossible	33671
GEN	35353
Ġbeware	40600
Ġshoot	2686
nen	38572
copy	30073
COLOR	46786
nerg	25649
EY	22348
Seriously	42338
Ġheats	37876
anti	17096
imbabwe	27175
ricia	26654
ĠCommunication	26117
jing	49940
Ġarguably	15242
Ġcryptographic	40705
ĠTHAT	14603
568	49211
fi	12463
Ġescaped	13537
Ġmarvelous	43937
Ġshady	36135
puter	10549
ĠEbola	15825
ĠEmpires	35102
Ġsinful	44858
agles	37803
Ġswiftly	23994
ES	1546
Ġengineering	8705
Face	32388
ĠMoses	19010
AZ	22778
Ġcall	869
Ġpursue	10660
undai	44591
Ġrehearsal	45795
short	19509
Ġscene	3715
hus	7537
Ġpil	5560
Ġsecondly	48550
Ġtransmitter	35099
Player	14140
Ġstopp	43804
421	46636
oulder	17601
ĠJanet	28111
ĠMerchants	44682
ĠRedd	42734
Ġelectro	15206
Ġpilgrimage	36068
Lair	40041
Ġrank	4279
ĠClaud	36303
Ġdishonest	30549
Fs	42388
edient	35279
Ġadequate	12872
Ġblogging	38310
ierrez	44448
Del	13856
====	1421
ĠKate	16693
ception	4516
ĠRule	14330
Ġcontingent	25477
Wind	8731
ictionary	14188
Ġhunt	12601
Ġhypoc	33240
AppData	22322
ats	1381
å£	18004
Ġnutritious	48102
Ġaccusation	25984
Ġscan	9367
Ġtotem	49930
Hey	10814
Ġshrinking	27382
Ġrapid	5801
ĠFirstly	41039
Ġpreced	8555
Static	45442
Bush	36113
ĠSteph	39644
Ġfolly	43411
Ġfram	5346
ugal	43778
Ġagony	35358
ĠScha	35756
Ġrecons	23898
Ġcolonel	46969
Ġsuccessor	17270
Ġspear	17514
Distance	45767
ĠWish	23447
BAT	47379
ials	8231
ĠCummings	38154
ĠEnrique	46879
ĠLect	31209
Ġclassic	6833
Ġinflated	32387
ĠBottom	24530
Ġá	28053
ogn	2360
ĠConstantin	41766
arding	13493
Ġanthropology	45424
Ġextensive	7667
Ġinherit	16955
ĠOrgan	7221
pi	14415
Task	25714
ĠCoat	39326
Ġ90	4101
Ġadjusts	46094
Ġdu	7043
Ġjo	2525
Ġinvestigators	10093
Life	14662
ĠDocuments	33267
imble	34477
Ġlobbying	17502
ĠMult	7854
ĠOscars	46485
MC	9655
Ġls	43979
Fat	33804
ĠGods	15391
Ġrecommend	4313
ticket	43350
Ġspeeds	12055
oling	40949
ĠNico	39360
Ġdisapprove	48866
lict	13758
âĸĪ	8115
Ġblogger	23530
Ġfunctional	10345
Ġcitizens	4290
pee	39463
Ġsmashing	35233
Soul	36315
aleb	32100
itation	3780
swers	37848
ĠMarijuana	29109
ĠUT	19255
Ġdecorative	39798
Ġ*	1635
.............	44274
ĠSOFTWARE	47466
Ġfacts	6419
Ġmural	36192
Ġaligned	19874
Ġplugs	37008
Ġpurchasing	14080
Increased	40281
Ġmull	35024
ĠGoal	25376
ĠSeveral	12168
Ġease	10152
JUST	25008
ĠFut	24002
ĠKKK	42907
dL	45582
/_	47835
ĠAUT	47044
Ġlongest	14069
onet	36823
Ġvisual	5874
manuel	18713
estine	27374
ĠLonely	46501
Ġcustomization	31344
ĠEmployee	36824
ĠDep	2129
ĠScotia	32586
responsible	24358
ĠYen	47028
Ġtweaking	39272
fo	6513
,...	42303
ĠBD	28023
RED	22083
Ġbelief	4901
318	36042
Ġplutonium	47901
Ġam	716
Ġdarkness	11854
Ġmigrants	12783
Ġexpedition	22817
England	39163
Ġequival	6854
aves	3080
released	30147
Ġrhythms	39804
ĠBrief	22821
ĠSurface	20321
ĠFAC	44216
Ġattendants	46337
Ġspectacle	27519
non	13159
Pro	2964
ulty	10672
ĠAFC	27987
ĠCities	20830
Ġtx	27765
Ġviolates	21806
undreds	20960
ĠMechanics	47570
Ġauthenticated	44529
Ġfeeds	21318
ILA	47164
opia	24464
ĠUSDA	29986
Ġmitigate	24237
Ġprevalent	21854
Ġstory	1621
ability	1799
Ġopenness	30913
ĠLau	40014
Ġref	1006
.;	15089
æµ	38184
Ġdepletion	42435
culated	49262
topia	46575
sent	34086
ĠPublishers	43403
77	3324
Ġenrollment	20753
urg	3686
Ġconvict	38309
Ġmot	2369
Ġrocky	26898
Ġtenure	17081
Ġ435	42671
Due	22229
Living	36376
ewitness	28588
ĠVis	6911
Ġassured	13933
ĠOk	6762
Ġfame	16117
ĠSuzanne	45587
ĠCommodore	48808
hood	2894
ĠConfiguration	28373
ĠWhit	13183
ĠDude	40628
Ġappropriation	34503
ENSE	24290
NN	6144
vale	41161
His	6653
Ġexplanatory	44742
etics	14596
uffle	18137
ĠCompetition	27348
ĠRET	30826
Ġst	336
attering	16475
guide	41311
ĠBanner	27414
ĠVisitors	44535
âģ	46256
ĠObamaCare	38195
ends	2412
Ġapostles	40759
Ġgravy	43779
Ġcontinually	17451
/.	11757
Ġreturned	4504
vote	27257
ificent	21559
Ã£o	28749
Ġ([	29565
ĠTos	40195
771	46761
romptu	49255
Ġmischief	38625
Ġprompt	6152
Ġradial	44503
ĠMurdoch	30370
bag	21454
Canada	17940
rand	25192
Ġfaithfully	42353
ĠSunny	32241
brate	40804
ĠVolt	22702
ĠKet	43092
Ġthats	29294
Ġdrib	35003
ĠPerson	7755
Ġreceiving	6464
ilated	40080
iction	2867
issions	7717
Ä«	18962
ÅŁ	46481
ĠER	13793
Ġfuckin	46733
950	31027
Ġsimilarities	20594
Ġsql	44161
Ġjust	655
Ġfinishes	20271
rake	33788
Ġpreseason	18913
PDF	20456
Ġsubreddit	25163
gas	22649
oved	2668
031	43637
dk	34388
Vert	42369
Ġknown	1900
600	8054
ushing	8023
Ġdisgusted	36943
Ġgraveyard	27672
Ġidentifiable	34450
Ġmissionary	34692
Ġpertaining	27113
April	16784
ĠCars	25277
Example	16281
Ġfreel	20643
Ġheav	6002
ĠFEC	44612
Ġbarbaric	48176
Ġconducive	45645
Ġpackage	5301
ĠTy	7039
Ġvisions	26096
Ġstretches	23687
Ġrejecting	26734
ohyd	15782
ĠVanity	46584
ĠPension	46391
Lord	22438
ASED	42827
Ġburd	8746
ĠEmirates	24880
Ġvirtually	9826
map	8899
secution	9534
Ġbitterness	35987
Low	20535
ĠJian	40922
urance	3874
Ġbargaining	23189
Ġeyeb	16067
Ġlocking	22656
sha	26270
ĠHiggins	39043
ĠDollar	29747
ilot	23439
Ġregulators	17199
Ġdeficiency	23580
ĠAdvertisement	39711
Ġpractitioner	32110
ĠPe	2631
ĠShinra	47981
Ġcatalogue	34614
Ġtold	1297
âĢĶ"	19056
Ġ1944	16994
own	593
Gallery	29352
anned	3577
ifiable	16823
Armor	31512
iots	16228
ades	2367
Accept	38855
rama	20058
ĠCount	2764
Cow	40147
ĠSequence	45835
ĠWatt	30263
ĠWond	31960
Ġauthenticity	26275
Ġcelebrating	17499
Ġdenial	14425
okemon	12717
Ġdeline	46925
ĠPist	18667
ĠShuttle	35143
ĠRoads	40065
Ġfacult	45101
Ġimprovements	8561
Ġscreenplay	39769
ards	1371
HOU	46685
ĠMex	4413
onential	35470
Ġ504	41612
ĠMunicipal	31526
Ġinnocence	24211
Ġminimized	49491
Grad	42731
PET	47731
ĠCollider	50253
Ġpamph	31461
Ġstadium	10308
ĠKu	12554
Ġbellig	45957
vs	14259
3	18
WAYS	42451
rique	33865
spect	4443
ĠDevi	47509
ĠTh	536
333	20370
ĠJarvis	46595
Ġdenounce	38639
Ġfirmly	14245
Ġkits	19183
Ġmineral	18352
ĠLower	16048
arenthood	17117
.?	40791
If	1532
ĠGauntlet	48941
ĠKat	8595
ussions	21585
ĠDutch	10914
ĠWei	29341
-------	26866
Cur	26628
Ġappear	1656
Ġbackstory	37998
Ġbusiest	42745
Ġhugged	41130
Ġjewel	16927
Ġjewels	42701
aldo	41476
èĪ	48958
Ġfacilitating	36045
Ġfind	1064
Ġsketch	17548
Ġspirits	13747
------------------------	22369
Ġsanction	18830
ĠRequires	26848
iley	9618
medi	2379
ĠShea	42368
ĠBounce	41474
Ġskim	39080
clusions	11539
Ġbreakthrough	19304
ĠInvasion	25484
Ġcompatibility	17764
ĠGenerator	35986
Ġdecency	39589
aire	7626
Ġtimid	44295
Ġunfolded	34660
Ġharvest	13222
Ġoutsourcing	44333
Ġreimb	46496
Blake	37849
talking	48186
ĠSkip	32214
Ġpharmacy	32763
Ġstocks	14420
ĠLotus	27578
ual	723
ĠDock	36444
ploy	1420
Ġventured	44716
ĠBW	37869
Ġ(@	4275
ĠMagnum	48019
Ġdemographics	30084
Training	44357
ĠCand	15518
Ġlegacy	10655
Ġpercentages	28071
Ġfun	1257
Ġsomewhere	7382
WATCH	35192
Ġredes	19965
ĠFalse	10352
Ġbetter	1365
knife	48810
Ka	37281
Right	11028
contin	18487
Ġbelonging	16686
ĠKend	19274
oit	30711
ĠCIA	7688
ĠYou	921
Ġdeteriorating	43229
Ġoffice	2607
utherford	46923
Ġopposition	5471
adr	41909
ĠBloomberg	15689
ĠLay	18881
Ġdisposed	29947
Ġprivately	17092
Ra	21762
ĠRomanian	34344
ELD	24639
Ġdistances	18868
Ġstroke	14000
Ġcities	4736
Ġinsulting	27899
Ġexamination	12452
ĠSacred	17380
JP	12889
Ġtidal	40738
Ġunhappy	19283
Ġveiled	45694
ĠWool	24759
wrong	36460
Ġkidnapping	25201
ART	7227
ĠLIVE	28323
Ġlength	4129
¶	114
ĠRest	8324
rypted	15109
embedreportprint	30898
ĠSc	1446
ĠTRUMP	42953
Ġdiminish	29889
Ġvivo	34714
Ken	27827
ĠAk	9084
Originally	22731
ĠWar	1810
Ġmigrate	32492
Ġseamlessly	33681
Ġcommander	11561
Ġcrawl	27318
entary	48648
text	5239
Ġactivities	4568
125	11623
ĠParallel	42945
ĠMonk	28854
Ġaward	5764
ĠMatch	13225
Ġcountered	32925
boost	39521
ĠNek	37167
ĠCP	16932
ĠOss	45397
Ġrelative	3585
mobile	24896
ĠTicket	24014
ĠFu	13333
conscious	16796
wat	47261
ĠTrip	18383
ski	20545
Ġviolating	18134
etz	23773
ĠDodd	32145
Fore	16351
Soc	37949
Ġhumans	5384
Ġdisturbed	24069
Ġimbalance	32556
rene	25924
ĠLast	4586
Ġculminating	43896
Ġlegion	41453
Ġ1440	49557
ĠWilkinson	46463
ĠRates	34864
Ġauthentic	16425
Ġscrolls	32138
Ġka	38387
Ġfeel	1254
Ġrebellious	43860
Ġmathematics	19473
Ġmilliseconds	38694
ĠFactors	41140
Ġunamb	42053
Ġleave	2666
ĠMorocco	29638
Ġclue	18437
saf	49585
ĠCed	25789
Ġaudible	35282
eter	2357
Control	15988
vest	4223
Ġ"'	24018
ĠInstallation	32588
ĠLocation	13397
Ġpeanut	26636
Ġskins	25873
ĠAval	23587
Ġliterary	16716
Fire	13543
raviolet	44223
YD	35755
aults	13185
ĠBlink	41732
Ġbirths	27244
Ġconverter	38394
Ġnames	3891
ĠParadox	37983
Project	16775
ĠLD	27178
Ġbehaviors	14301
rawl	13132
Ġdrama	10512
Ġsword	8429
ĠHoffman	29010
Ops	41472
VICE	27389
ĠOnion	34733
Ġprotestors	36915
ĠAvoid	24390
Ġbars	9210
Ġlofty	37248
Ġtom	16667
ately	1286
Ġinducing	44561
Sun	16012
ABLE	17534
Ġsupplier	22693
carry	34993
ĠRelative	45344
ĠMoonlight	39951
ĠRemain	42606
Ġautoimmune	46938
ĠVenezuela	16666
Ġmah	42768
Ġpastor	22175
agically	39066
Ġlicence	17098
ĠSerial	23283
Ġunderpin	42185
Ġreused	46823
six	19412
Ġpuff	33679
ĠElementary	25335
Ġconsumers	7008
Ġcompeting	11780
ĠSant	10844
Ġfailure	5287
Ġfract	12999
Ġperished	43181
ĠWOM	45386
ĠPvP	25576
Ġrays	24823
Ġconsultation	18103
Ġ4090	48908
Ġseen	1775
Ġparameter	11507
Ns	47503
shine	19489
Cro	35403
ter	353
lamm	11199
ĠDev	6245
ĠEmpire	8065
Ġabuse	5076
Ġoff	572
ĠQaeda	17942
ĠAbbott	16988
ĠpartName	37842
another	29214
Ġpopular	2968
Ġserve	4691
owell	32829
Ġtags	15940
Ġshiny	22441
Ġexotic	21036
ĠAlonso	36345
Ġunfl	42880
ĠCharacter	15684
significant	36591
Ġbeginning	3726
Ġcontempor	36081
Ġresonate	41523
Ġwhite	2330
mag	19726
Ġ770	44586
WARNING	31502
Ġcellul	47354
Case	20448
.),	12179
Prem	24914
ELY	30943
ĠSonny	46227
ulla	47972
face	2550
Ġ........	20004
ĠStafford	30596
Absolutely	40501
ON	1340
Ġbaskets	46530
Ġgreedy	31828
Ġintensely	31146
ĠHonolulu	43296
Ġ422	46588
Ġjumped	11687
Ġpop	1461
Ġsporadic	48172
Ġastronomical	37209
iameter	13173
Detailed	32080
Ġbeans	16567
Ġevangelicals	44881
Ġboo	22513
Ġintel	33649
Ġshout	9191
Ġself	2116
Ġmetro	24536
reements	28919
Ġ((	14808
Ġcoincide	37319
anke	49200
hhhh	36607
ung	2150
ĠRah	18655
Ġpenal	23634
ports	3742
ĠElectoral	27557
Ġsuppl	6019
Ġalmonds	48793
Ġfisher	17685
Brook	45534
END	10619
ESCO	43311
isexual	20863
computer	33215
ranch	25642
Ġ737	37517
ĠLu	6026
Ġobligation	12990
ĠContin	6389
Ġconcerned	5213
osphere	22829
Ġrichest	24348
\\\\\\\\\\\\\\\\	34604
atra	26066
ĠArmy	5407
ĠColour	38773
Ġpreserves	43759
Ġquotes	13386
Ġdrawn	7428
ADD	29266
Ġbreaks	9457
ĠRI	37271
Ġdisav	47612
Ġstrategist	25651
Ġadjud	33719
ĠPubMed	32131
ĠBudget	15401
],	4357
ĠGiving	35603
Ġ169	27191
Ġappointing	47680
ĠIsis	16530
ĠPrinc	14117
gam	28483
birds	32002
ĠTwenty	22381
Ġhierarchy	18911
Ġnon	1729
Error	12331
ĠSky	5274
Ġpropell	46059
Ġbunk	36355
Ġbuf	42684
Ġswast	47923
rans	26084
Ġimply	20135
ĠNike	23817
Ġbowed	35737
Ġprotocol	8435
ĠPolaris	41193
Ġtossed	22591
Ġbeads	36116
Ġevidenced	30204
Ġforc	24686
Ġsigning	8415
Function	22203
ĠExhibition	48064
Cond	25559
----------------------------------------------------------------	10097
Ġ378	45473
ĠPing	34263
Ġdevelopments	13312
raphic	22262
Ġprovocation	41209
Ġclicks	25785
Ġurge	14960
sp	2777
ove	659
ĠBarnett	38174
Ġran	4966
Ġreplies	20616
Ġaut	1960
ĠQt	33734
ĠLaugh	47501
Since	6385
ĠSTAT	15486
ĠSpecific	17377
oint	1563
ĠAly	47535
Ġinevitable	13203
Ġneed	761
aign	1784
hemy	36598
room	3823
Ġblocker	38731
ĠReverend	47042
ĠChan	18704
Ġclinging	40137
Ġiss	1189
Ġlistening	8680
Ġpredicts	26334
philis	49613
ĠScion	49632
Ġhitter	30858
ĠCertain	16272
ĠPearce	41902
ĠMcM	15359
ĠBraun	34492
Ġadvantages	13391
Ġborders	11637
Ġphysician	14325
10	940
Ġalbum	5062
itbart	17868
omi	12753
ĠCodec	39298
Ġflowed	35456
Ġfavoring	43567
erous	48411
orbit	42594
Ġlessons	11658
Glass	47698
Ġairs	37112
Ġallegedly	7910
Ġcurses	43878
Mobile	17066
idas	24496
Ġconcentrating	37367
Ġmoisture	20160
ĠPir	10334
Ġplots	21528
Ġspike	20240
oned	12004
Ġconclud	5392
ĠEle	15987
Ġvaluation	29115
GC	15916
warming	48133
Ġdemonic	33739
software	43776
Ġunch	16258
heddar	44937
gets	11407
Ġencouraging	12577
Ġhumor	14733
ĠDust	16240
Ġjeans	21029
Ġunsuccessful	23993
lessness	17587
ional	1538
Ġsensibilities	50222
Ġviolated	13998
Ġprop	2632
ĠAmar	44291
Ġprow	25055
Ġregul	3475
Ġeventually	4191
Ġfootage	9640
Kelly	34831
rete	8374
paced	32416
ĠFact	19020
Ġblended	32063
ĠRuk	49037
Ġbrittle	49307
Ġinv	800
Ġdedicated	7256
Ġende	15535
ĠHamilton	11582
ĠSafe	19978
Ġremembering	24865
ĠDudley	37198
ĠTrick	30028
Ġstereotypical	46112
952	49234
Ġcookies	14746
ĠCrest	40072
ĠBut	887
ila	10102
stitial	18167
ues	947
ORD	12532
mire	47004
`	63
ĠMORE	12011
Ġaer	9551
ĠDiver	50137
ldon	25900
Ġdoctrine	13115
Ġscientifically	32627
Ġtracker	30013
Ġwhom	4150
Ġcritically	19475
):	2599
Business	24749
ĠEnhance	32999
ĠSoldier	20104
Ġfamilial	48376
AW	12298
ĠCry	8152
Ġefficiently	18306
Pad	26114
eder	5702
kHz	44191
otom	43125
seeing	42041
ĠEminem	49428
ĠOutput	25235
Ġaboard	15500
ĠNeither	16126
330	26073
ĠTerrit	18968
'."	30827
ĠDeb	8965
ĠTradable	11974
Ġanchors	43360
Ġfooled	35820
Ġgubernatorial	45265
Ġpow	7182
Ġscalable	43865
Ġabsorbing	34418
701	41583
sters	5937
422	44361
wagen	29160
Ġ175	19038
Ġcopy	4866
Ġhanding	22786
Ġmentors	44691
Arm	26560
ĠStart	7253
Ġoptimum	39475
Ġpointed	6235
Ġquestionable	18269
Ġreform	4975
ĠLip	24701
Ġcommute	31099
Ġtribes	15663
john	30686
Ġ183	28551
ĠSU	13558
Ġusually	3221
Ġyear	614
Ġbackward	19528
omp	3361
ĠBAD	33934
Cub	43632
ĠINC	19387
ById	48364
ainment	37091
Ġrains	29424
ottenham	21889
Ġrecite	46528
Dialogue	41099
awaited	41742
Ġdreams	10625
ealing	26919
Ġtextile	45293
justice	31012
words	10879
ĠDrama	30647
Ġallele	45907
Ġannounces	26459
Ġenvelop	16441
ĠEVEN	45886
Ga	35389
Ġuniquely	24139
Ġwave	6769
Ġdisease	4369
Ġunnecessarily	38347
orn	1211
isphere	22833
Ġunderside	44929
gression	32383
ĠPatient	35550
ĠStead	45445
Ġ[*	30138
Ġintegers	37014
Ġmine	6164
David	11006
Ġinterfering	32874
ĠJohnson	5030
Ġflowering	48573
aman	10546
ĠMoving	26768
asa	15462
female	24724
igating	29129
Ġ000000	41853
ĠUNIVERS	49677
ThumbnailImage	39142
ĠOrb	15839
ĠRaven	12552
Ġdecision	2551
Ġexploration	13936
Ġpatri	12650
Ġpolicymakers	29484
00200000	36490
Ġbliss	30533
ĠSending	32038
Ġgrave	12296
Ġleap	16470
Ġnanop	46661
Yes	5297
ractor	40450
Israeli	29818
StreamerBot	37574
sw	2032
urities	10886
Ġairing	31701
Online	14439
BER	13246
igenous	12357
jas	28121
Ġ1280	37674
blood	18041
Hum	32661
ĠBever	22185
ijuana	5343
ĠProvides	47081
ĠUniversity	2059
ĠChr	49369
Ġcrumbling	37550
ako	25496
Cour	25877
Ġfairy	25607
ĠTim	5045
Ġfilming	17691
FB	26001
Ġhedge	19859
marked	23505
ĠZuckerberg	32584
Ġbite	13197
Ġmistakenly	33168
Ġregisters	28441
Ġreasonable	6397
ĠSidd	44487
ĠBooker	31004
/âĢĭ	27643
ĠCSV	44189
iking	14132
ppe	27768
Denver	49818
ĠSoviets	31062
âĸĦ	45786
ĠZy	40905
Ġincentive	15660
Ġliquidity	31061
`,	47671
ĠNick	8047
ĠConsent	46869
Ġpounds	8059
Ġbrow	4772
Ġsans	38078
ĠFren	39208
ĠLevy	32036
Ġwelf	9468
ĠBye	47843
adian	18425
olt	5978
ãĤº	37426
ĠGrande	29073
ĠTactics	23767
ĠBri	25866
ĠLou	4768
ĠThirty	29948
Ġgoat	26917
Everything	19693
Allen	39989
roe	20646
ĠAlaska	12926
USER	29904
ĠSachs	25158
Ġextracts	32139
Ġgon	35140
Ġitems	3709
Ġdoctoral	40995
cia	33743
Ġmaturity	24841
ĠNewspaper	49598
fascist	46928
ĠPast	11303
Ġconfounding	43849
Ġdermat	40363
Ġmushrooms	23452
Ġprimed	46959
ĠCub	7070
ĠMartial	28526
ĠPolitico	27096
ĠDownload	10472
amed	2434
Ġrectangle	35991
Ġscams	41718
Ġsettlements	18573
Ġunravel	30282
Ġupgr	5484
Ġhistories	25985
Ġposing	24380
Ġreinstated	40685
Ġwithdrawal	15220
Ġinterpol	39555
between	23395
ĠDetection	46254
TB	22737
Ġexcluding	23494
Ġsituational	45290
imil	26641
ĠÂ£	4248
Ġcomplicated	8253
Repeat	40322
Ġjobs	3946
Ġquotas	38736
Ġslaying	45183
Pure	49548
Ġtracing	35328
Ġsystemd	31490
Ġentangled	47446
Ġvirtue	14675
Ġfreeing	35800
Anyone	21129
Fit	31805
Ġprominent	9208
Serv	11838
accompanied	42588
ĠCA	7257
market	10728
encrypted	43628
ĠParking	29259
ĠWeir	46669
Health	18081
Ġcocaine	15144
Ġfasc	7751
Ġunchecked	40032
Ġtram	29957
386	21734
ĠId	5121
ĠDare	45981
jab	27935
Ġsatire	35704
ĠDoctrine	35541
Solution	46344
Ġenvironments	12493
proof	13288
Ġcleans	20658
vironment	2468
Ġdistracted	22943
ĠGathering	36397
oler	13625
Ġnegativity	45074
Ġ1919	30992
Â´	18265
bitcoin	35395
ĠSpin	28002
acies	13433
ĠExternal	34579
ĠEV	8696
ĠBasketball	25911
ĠFarn	49230
berra	31358
ĠNames	28531
Regardless	27894
Ġcamel	41021
Ġcapable	6007
uld	32926
Ġqualifying	18677
Ġcats	11875
ĠKING	32957
uffy	15352
Ġ560	38089
Timeout	48031
Ġremake	28763
Ġsunk	24790
Hor	27991
entials	14817
Ġparallels	30614
Ġtraditions	15421
ãĤ¯	14099
Ġmetabolites	49574
Ġwhoever	16958
anza	35819
Ġellipt	48804
Ġcleanup	27425
Ġubiqu	23861
obb	21963
antis	20836
ĠOsama	29236
Ġcondemned	15006
span	12626
Ġket	22354
ĠPricing	45030
ĠWilliams	6484
Ġworsen	47058
Ġsquare	6616
';	17020
ĠArchangel	28811
ĠInformation	6188
ĠSunrise	45023
Ġpreaching	32037
ĠEnding	43626
seeking	38515
irted	48357
ĠInt	2558
Ġpree	47488
mes	6880
Ġcontrast	6273
utils	26791
Ġ();	13979
Ġgotten	7891
Ġexceptionally	24822
Ġsystematic	17895
Ġtrolls	24727
them	18855
ĠVader	27403
Ġ#####	46424
Ġdelivery	7585
Ġtort	7619
Batman	37039
Ġliberalism	33108
ĠBarney	41921
develop	16244
ĠHus	13895
ĠGears	46680
ĠIrish	8685
Ġfunding	4918
She	3347
Ġadvent	19980
ĠAlger	26832
ĠCanad	2294
Ġobedient	41652
Ġseasons	7028
Ġfaithful	17074
Better	28971
åĭ	47947
reck	11402
Strike	31584
Fine	34389
Introduced	37143
kowski	26216
yr	2417
Ġ27	2681
Indeed	17854
ĠDj	19307
ĠYon	46340
ript	1968
ĠEsther	47533
orp	16300
Ġhates	24702
ĠJail	25715
Ġridden	46715
eli	43733
Bo	16635
De	5005
Returns	35561
ĠIPS	37632
opic	16603
ĠLB	22199
Mark	9704
302	22709
ria	7496
ĠDrew	18624
ĠGlou	49383
Ġ1918	25859
ĠPercentage	36013
ĠSharia	38627
Cla	47404
remove	28956
Ġbowling	33564
ĠLayer	34398
Ġdeft	46208
Ġintervals	20016
Ġmicro	4580
Sa	33890
ricanes	24881
ithmetic	29848
Ġviolin	38283
riel	11719
ysis	3097
ĠPenn	6595
ENCY	45155
Ġdeepening	46539
ĠMetatron	38894
Ġelecting	46913
groupon	14531
Ġch	442
Ġmachinery	20230
Sus	30746
ownt	6887
Ġransomware	49134
ĠMayer	33996
Ġspacious	40894
Ġspiders	26120
770	41820
resolution	29268
anchester	8911
Widget	38300
itus	17506
Original	20556
8000	33942
education	40796
Ö¼	47903
ĠGalile	32422
ĠTap	16880
age	496
ĠHighly	38254
Ġclown	25573
ĠEyes	18301
addr	29851
Ġconsultancy	47827
Ġpseud	25038
Ġagendas	37611
Ġresists	47786
within	33479
Ġsubstit	21436
Ġdiscour	15117
Ġthanked	26280
ĠExecution	37497
Ġfigured	11638
Ġadvant	4026
Ġinvolved	2950
Ġreasoned	37857
662	39380
Ġbureau	10583
ĠHong	9764
Ġ1969	16450
rylic	34554
Ġcurtain	29461
Ġdevastating	14101
Ġtur	7858
ĠJM	47726
aretz	48338
ĠBrend	19252
ĠexternalToEVA	30212
fters	47131
ĠBudapest	40959
ĠFinding	27063
SOURCE	47690
ĠHod	22816
Ġ1999	7358
stairs	17617
Ġdrawbacks	42763
Ġknights	27536
Ġgar	5482
Ġless	1342
Ġscrape	42778
RIPT	46023
Ġ136	21056
Ġgreatest	6000
Ġunconditional	42423
Penn	39899
Ġsal	3664
Ġwed	29445
mil	25433
break	9032
ishops	21863
Ä±	30102
ĠAJ	25347
ĠReincarn	15083
perties	18200
ocre	27945
Ġmaintains	16047
ĠArgent	12335
Ġremedy	21210
Being	18357
ts	912
Ċ	198
Compan	41309
Ġbatteries	13591
Ġcloth	16270
ĠCheryl	37958
ann	1236
ante	12427
Jess	34648
Ġcontextual	38356
Ġ199	1594
ĠLil	16342
ĠSubway	38923
ĠDell	23617
ĠTavern	32693
ĠTerminal	24523
ĠDollars	45792
ĠGuer	30059
Ġsanity	34182
Ġsection	2665
Ġcritic	4014
Ġtranssexual	41482
Progress	32577
ipples	27844
Ġleaders	2766
Ġhusband	5229
rowing	11577
Ġweighed	20261
ĠDominic	36401
Ġsciences	19838
Ġchats	40815
Ġantim	37802
ĠBuzzFeed	26321
shire	10932
ĠLiam	31684
Ġfired	6294
Ġplate	7480
åĤ	43636
ĠTwitter	3009
Ġflowing	17609
ĠLys	46749
ĠcafÃ©	40304
Game	8777
Ġmechanic	21600
Ġoppression	18345
Ġspring	6076
)=(	35793
eer	28153
Ġfumble	41405
untu	11157
ĠPalest	5480
ForgeModLoader	24934
arching	38270
Ġrankings	16905
ade	671
Sm	7556
Ġpossessing	25566
ta	8326
ĠVincent	18653
ĠChicago	4842
Ġmotorists	32688
ĠClintons	30234
vision	10178
ĠKant	29576
Ġshut	4423
ĠMos	5826
Ġ1906	40538
lasses	28958
ĠBrain	14842
ĠVariant	38215
alloc	32332
YL	45448
Ġ1994	9162
ias	4448
weapons	33999
ĠAppalachian	45375
ĠCurry	20920
15	1314
690	35844
probably	26949
Ġanalyze	16602
Ġbinaries	38640
Ġfails	10143
Ġflashback	41963
Ġgre	10536
Ġinitiated	16862
Jennifer	43187
ribut	2455
Ġlun	14678
089	49352
ĠFA	9677
Iter	29993
Ġcoincidence	21083
Ġknives	23110
Ġmoderates	47019
Ġonly	691
witch	42248
Ġstove	27635
Ġcounterproductive	46674
ĠEinstein	24572
Ġ~/	47795
Ġafford	5368
Ġroles	9176
Į	234
olate	27976
Ġemployees	4409
aez	47246
player	7829
ĠRober	4109
HY	42598
omez	30010
ridge	12818
uid	27112
ĠEnds	46756
Ġerased	33588
Ġrecre	11027
ales	2040
Ġscore	4776
ĠColon	14049
ĠLaur	13240
ĠCf	43216
ĠDir	36202
ĠHunts	31926
ĠRowling	41558
idity	17995
ĠCompar	22565
ĠGeneration	16588
ray	2433
aggressive	49639
obia	30665
ĠMeanwhile	11214
ãĥķ	17681
ĠSECTION	44513
IGH	18060
Ġmodifying	30620
Ġqualifiers	40528
Ġinsur	49741
493	43134
Death	20148
Ġpenetrating	41456
Ġcontag	34335
Ġstatistical	13905
Ġsuppressed	25822
Ġwhereby	23482
Ġdecisively	47948
Ġjet	12644
idding	13494
oran	31884
ãĤŃ	25084
Hot	21352
178	23188
Thus	19093
ankind	28066
history	23569
sections	23946
imag	48466
ĠGreenland	30155
ĠImmortal	32888
Ġpieces	5207
ĠWITHOUT	42881
Ġprocedure	8771
Ġ2004	5472
ĠRodrig	16114
Ġtiming	10576
è¡	26193
Ġeroded	44699
Ġpumps	29019
ĠEntertainment	11058
ĠCol	1623
Ġinvesting	14771
Ġ1941	23234
Ġstomp	32221
wordpress	40346
ada	4763
916	48894
Ġmates	27973
dri	7553
Ġkinds	6982
Ġsubsidiaries	34943
Ġtouchdowns	17692
ĠBab	12400
ĠVancouver	10930
vey	3304
ĠPRODUCT	41458
Ġpedals	42563
opal	33067
ĠNovel	24467
ĠParad	14853
Ġfound	1043
Ġgunmen	35141
Ġsaturation	36275
onies	17300
Ġconvened	39828
ĠCambod	25960
ishy	49785
iazep	48826
Ġfacing	6476
Ġthough	996
Ġgravity	13522
angle	9248
Ġnightmares	33301
ĠWidow	39061
Ġadds	6673
ĠSalary	46860
ĠHistoric	30426
ink	676
1983	29279
fan	24408
Ġlens	10317
ensation	25742
Ġgoals	4661
Ġsofa	34902
ĠsrfN	42586
Ġvia	2884
Ġfusion	21748
TRY	40405
ĠColeman	22687
ĠRegulations	26108
Ġscept	30186
aration	10186
ĠSciences	13473
Data	6601
Ġ)	1267
Ġcontends	33799
Ġillegal	5293
IDER	41237
Ġlurking	36105
ĠNonetheless	27251
Ġtown	3240
Ġdev	1614
craft	3323
Ġcapacities	32484
haar	42948
Ġprisons	19224
itness	3659
ĠDL	23641
ĠYale	19681
Ġaddon	48557
Ġfluffy	39145
itant	23737
ĠiPad	13133
Ġ608	39084
Ġtongues	39413
scripts	46521
Ġcategor	17851
aeus	46052
Ġtractor	38278
Ġversatility	31689
ĠEngineers	27170
Ġrepairing	39005
ĠWarner	14469
fff	20972
perm	16321
ĠOfficial	15934
arning	4228
atoes	15048
ĠHTTPS	38288
Ġconduit	44457
ĠWitch	14522
Ġse	384
Ġspeculate	26256
ĠWellington	30597
Certainly	36001
ATURE	40086
ibliography	45689
ĠRih	44502
ĠCooperation	35047
ĠNorthern	8342
Ġingested	44694
Ġweapons	3777
ĠChero	37156
Members	25341
hs	11994
rote	2519
ĠUFOs	49863
Ġfooth	36522
Ġgrip	11762
angs	27725
ulse	9615
Ġ503	44541
ĠDefender	25533
ĠAppendix	30378
ĠInstruments	43953
ĠRUN	32494
Ġdesserts	47950
Ġdreaming	28368
ĠTrayvon	44037
Ġcaffe	21121
Fif	44403
Ġframe	5739
TING	48996
Ġglimpse	19350
Damn	43343
Ġdemocrat	43268
{"	4895
ĠAlter	32770
ĠCBD	27147
astery	29310
Ġforeskin	49877
Ġridic	8817
arna	28610
Ġpumping	26916
Ġ252	25264
Ġstd	14367
otherapy	18952
ised	1417
wald	21667
ĠDeVos	39503
ĠThus	6660
ĠVict	6114
Ġcurv	46171
ĠSenate	3845
beat	12945
utan	37878
Franc	42885
sche	15952
Ġ!=	14512
Ġgambling	19029
ĠMic	7631
Ġdemonstrations	18721
Ġcommenter	46914
Ġimmature	40620
Critics	36623
Specifically	48379
Stars	29366
--------------	26171
ĠDocker	25716
ĠVirtue	39662
ĠDepending	23591
alled	4262
hner	22277
eking	18754
Ġdomain	7386
ĠTibet	18910
Ġ440	33879
bishop	27832
ĠClick	6914
Ġformats	17519
478	29059
ramer	29172
ĠJessie	43425
ĠRookie	36595
INGS	20754
Ġgripped	42046
jad	38442
Ġgrizz	46307
Ġcohesive	42403
Ġincor	5970
Ġgoodbye	24829
THE	10970
prime	35505
Ġcorridors	32807
ĠAttack	8307
Ġclimate	4258
Ġconfirm	6216
ĠDurham	30928
Ġinflation	10610
Ġintroduce	10400
ĠObamacare	12439
Ġtoo	1165
Ġtornado	33718
Ġunic	28000
Ġvitality	41687
ĠFer	12880
Ġabs	2352
Ġpossessed	17273
gone	21260
Ġsetbacks	43235
ĠPicard	36614
ursion	24197
ĠCheck	6822
Upload	41592
ĠTet	27351
Ġplethora	35146
Ġsmoker	41644
unic	46903
IST	8808
160	14198
Pack	11869
ĠBreakfast	32175
ĠSau	23167
Ġchests	34572
Ġcoating	26749
Ġinfall	48124
ĠHelic	48574
Ġel	1288
Ġcleansing	32784
Ġrevealing	13477
imp	11011
enthal	34728
iant	3014
Ġ1972	16101
247	23753
isSpecialOrderable	39755
visor	13131
elsen	25328
UAL	25620
ĠIncarn	39919
isodes	8052
ORK	14670
ĠProductions	25315
Ġdestination	10965
Ġworldwide	8688
ĠNad	21877
ugs	10339
ĠCarson	16787
Ġbelongings	30985
eper	5723
ĠKiss	20350
ĠCarroll	21298
ĠEverything	11391
orge	3643
436	43690
Ġbred	33592
ĠGo	1514
Ġsovereignty	18582
Ġvivid	21002
ĠVengeance	37120
ĠLima	41578
alist	49845
lot	26487
ğ	219
Ġ--------------------	41436
Ġblood	2910
ST	2257
Ġtragedies	42546
Ġvis	1490
keeper	13884
ĠRegarding	38687
Ġwealth	5129
ttle	23296
orem	29625
Ú	150
Ġsatirical	40557
Ġcolourful	44799
ĠDrag	12697
Ġwrath	26485
ĠMoines	36576
Ġintegrity	11540
Ġhung	9174
Ġoperators	12879
Ġhomeland	23184
Ġinteroper	48817
ĠVall	46929
Ġprocessed	13686
Ġrake	47885
ĠCassidy	41373
ĠDesigner	31716
2012	6999
ovo	18768
Ġpopulate	48040
Ġvideo	2008
ĠLann	39004
Ġworld	995
Ġvying	48067
Chance	43606
733	49995
Ġreset	13259
ĠYoung	6960
Ġaccelerating	32253
Ġappar	17956
SPONSORED	37190
cember	3273
ĠIzan	35144
ĠUW	33436
air	958
ĠCa	6488
ibia	41145
Ġeviction	38738
ĠSok	37641
pine	23908
Ġbased	1912
agi	18013
Assuming	48142
imeters	31551
Ġbakery	38164
ĠShapiro	34034
ĠRep	1432
ĠParis	6342
amm	6475
ĠTurning	36143
ĠPad	15744
Ġpsychological	10590
Ġslee	14368
inx	28413
xa	27865
ĠÎ²	27169
Ġagreeing	24093
Moving	33622
orers	28089
ĠAlternative	27182
ĠNIH	37483
boss	42820
bard	23024
ĠSomewhere	43808
daughter	29642
Ġinjure	42206
Ġrepeating	20394
gun	7145
Ġtwe	4184
ĠRED	23848
Ġfirepower	36661
izards	14124
Ġshed	14999
ĠDrawing	40027
ĠPride	21735
modified	41771
ĠEven	3412
ĠVid	38965
Ġconver	6718
Ġpolluted	42340
Ġscarcity	35501
div	7146
wind	7972
Ġpurple	14032
levision	5024
Ġtofu	40108
"),	12340
ousy	41808
Ġdormant	41038
usp	17723
ĠILCS	36169
ĠRiyadh	37236
ĠCPI	42103
Ġhumanities	47824
edded	47238
Ġtrendy	44493
ĠMIT	17168
Ġpunishable	30124
isco	4861
isan	9057
ĠEco	38719
ĠCity	2254
Ġcandid	2960
Ġsingled	31958
ĠReally	16123
ĠSwe	19372
AAF	38540
Brother	39461
Ġresponsibilities	15171
aucas	25205
Ġnominated	19332
[[	30109
Ġwrapped	12908
ãģ«	28618
Ġarist	28631
ĠÂŃ	22020
Ġaviation	22548
eware	29725
ĠDeer	34022
reenshot	26892
Ġmarriage	4845
IDENT	25256
!?	22857
Commercial	48401
Ġaggrav	20072
Ġindicating	12739
Ġomnip	40046
otally	38908
fire	6495
ĠShall	38451
Ġintox	21275
BF	29499
Ġmindless	46560
Ġ432	46393
Ġpowerless	34209
washer	45146
Ġfashioned	35458
Ġslipped	18859
Ġsmokers	24109
iru	35406
ĕ	209
Ġtourism	19277
ello	11109
Ġpiles	30935
sure	19532
thumbnails	18670
ĠLeaves	46597
Ġrequesting	20623
Ġnorthwest	24821
ĠRack	37927
shown	42579
worm	25323
Ġcivilizations	35928
To	2514
timer	45016
ĠTools	20003
ĠTri	7563
stars	30783
obiles	36329
Ġbraking	36682
ĠLebanon	16849
Ġtr	491
ĠCountry	12946
lyn	6213
onic	9229
Ġgraph	4823
Ġmagn	7842
Ġwhispering	48508
Setting	34149
ĠFal	9596
alpha	26591
hidden	30342
ĠDonna	29216
ĠWarrior	14019
Ġalleges	24763
article	20205
Assembly	49670
Boost	45686
leasing	48764
liber	33203
onent	3471
Ġplanets	14705
Ġapplied	5625
ost	455
Ġtainted	36912
rid	6058
gans	39352
Ġcogn	8866
igrate	42175
Ġcommunist	20555
Ġfeedback	7538
Ġped	7190
ĠEck	45232
Ġmentioned	4750
opens	44813
ĠKinder	46832
Ġchanted	42261
Ġ1952	26352
ĠAdults	35154
ĠREST	30617
skip	48267
ĠCONFIG	25626
nice	44460
ĠAnonymous	19200
ĠScient	9898
ĠPE	18468
ĠUran	33287
ĠComplex	19157
196	25272
RPG	46954
Ġeduc	2711
opy	11081
Ġlax	36919
Ġmaintaining	10941
Graham	45821
Ġmun	29856
iatric	11439
Ġstellar	25041
Ġhelm	18030
Ġimproper	18992
Ġtranslate	15772
Ġversa	25470
Ġcave	11527
gently	34727
ĠFusion	21278
Ġcollaborations	48421
Police	9039
Ġbodies	5920
ĠMun	12107
iot	5151
aring	1723
xc	25306
ĠPaige	42847
Ġhomophobic	36034
Ġprinciple	7989
Ġ215	22951
Ġgauge	18266
ifacts	37199
ĠFairy	17746
Ġairstrikes	26665
ĠCont	2345
ĠLaf	31528
ĠTEAM	33536
Ġawoke	43363
ĠGAME	30517
Ġharmony	22471
Ġimmersion	36375
acked	6021
inc	1939
Ġincredible	8082
Ġmalt	26868
Ġmiracle	20820
ĠSheridan	47813
Ġundoubtedly	17713
ĠCock	23769
Ġpageant	47894
ensual	31406
fect	2309
949	48581
ĠCafe	26965
ĠGiles	37538
ĠBuchanan	36358
ĠIslamists	34434
Executive	43885
ĠPurg	49893
ĠTrump	1301
otti	26380
ĠUniverse	11950
Ġfarewell	33458
Ġdispute	11047
Ġfascist	28342
Ġtouring	25583
ĠCastro	21193
ĠMarine	11000
icator	26407
Ġtracts	42385
Ġweddings	37377
Ġpsychic	25058
ÙĪ	30335
ĠFinance	15007
Ġpaperwork	23143
Ġremembrance	44827
Ġscrewed	27527
ĠCooke	46247
fa	13331
oving	5165
Ġagriculture	14510
Ġknowing	6970
Ġconstantly	7558
Ġpeanuts	45612
Ġmoms	34015
ĠTechn	5429
Ġcryptic	47774
Ġgives	3607
ssl	45163
Build	15580
706	35402
ĠHuawei	43208
Ġlevers	48872
Ġ;	2162
Ġlending	20983
iated	12931
ĠJakarta	49251
aster	1603
Ġpropose	18077
romancer	38211
ĠTodd	14377
Ġgateway	24308
Several	14945
Ġ1959	23859
ersive	24469
ĠContinuous	45012
ĠOUR	30229
ĠSeat	26682
issues	37165
ĠAuthority	11416
ĠCarlson	33059
ICAN	42710
ĠHeat	12308
Ġfoster	17016
Ġhelpless	21144
Ġpodcasts	31969
Ġwe	356
ounces	45982
ãĥ¼ãĥ«	43353
ĠLowry	44024
ĠSelect	9683
Ġbidding	23829
Ġlimited	3614
Ġsuperstar	28422
ĠSeeking	48160
Ġlogger	49706
ĠLOW	46663
Ġoptim	6436
Ġstrap	23016
Ġbreathing	12704
ĠCandidate	40327
hire	10695
Ġwinner	8464
visible	23504
Ġcharitable	21803
Ġmarkings	30390
ĠBeng	14964
ophile	37161
Ġsubscribers	18327
Ġtre	2054
Reports	37844
ĠAST	29273
FIX	47084
axter	40864
ĠSiege	30207
ĠBrig	16917
norm	27237
Ġ?)	41349
ĠService	4809
Ġspinach	39129
Ġpineapple	45540
ĠIMP	30023
ĠCubs	21562
Opening	43093
iken	29943
Creat	16719
ĠInnov	43405
ĠVal	3254
Ġgift	6979
Ġorbit	13066
Ġobjections	21954
Ġuber	48110
ulin	11599
ĠRPG	12909
Ġlanguage	3303
Ġgenocide	20744
Ġbombings	26579
080	33057
ĠNicolas	29737
ĠPostal	32881
Ġcomplainant	42764
Ġhardware	6890
Ġfavored	19344
Ġremoved	4615
Ġranging	12897
Ġautonomous	18284
ĠChe	2580
bh	34369
ensible	27339
kids	45235
ĠBroncos	16582
ĠMotors	19292
Ġradiant	43888
windows	28457
Ġexamine	10716
ENGTH	49494
ocado	33441
ĠNapoleon	28283
++;	47253
ĠTraining	13614
Ġassassins	44454
Ġbron	18443
Ġstrings	13042
Ġcomprehension	35915
Ġdro	3102
Ġstrip	10283
Ġintervening	37294
Say	25515
Ġ176	26937
emy	3065
Ġrealizes	23660
RAG	33202
urances	31741
ĠRepublican	3415
igl	38686
ĠRud	17421
Ġautomakers	47296
Ġintercourse	22409
Ġdivert	36583
Ġcele	3879
Pac	18844
nec	32984
etsu	30470
ulsive	22220
ĠDOD	42756
LA	13534
Ġexting	24973
Hom	28718
Pe	6435
oga	10949
Ġlines	3951
Adam	23159
ĠPirate	17418
Ġpartnerships	22867
balance	20427
ĠHodg	37480
ĠIts	6363
ĠHelen	22695
Ġacclaim	21684
ĠCornell	27119
Ġanalysis	3781
Ġboiler	36741
ex	1069
359	30743
scoring	46536
Ġscattered	16830
Ġimpunity	37610
Ġintoxicated	35344
Ġ207	27791
Ġshakes	29959
Han	29919
lly	12810
ĠCass	14154
million	14100
Occup	47658
rosc	45943
ĠFlowers	30036
avement	44034
Ġretired	9880
Ġtender	15403
ĠEcho	21455
Ġfunc	25439
Ġraining	43079
Ġblatant	29000
ĠSEO	30850
isode	3282
abin	6014
heartedly	44407
ãģ§	30640
undy	45459
Krist	40756
Ġacademic	8233
Ġbury	30033
Ġdoubted	37104
ĠDetective	20220
Ġartisan	43259
Ġminute	5664
orst	29422
Ġproc	13834
Ġspew	38645
Ġenhanced	13105
Ġimitate	44638
Ġsubcontract	47980
Ġspectators	31704
Ġtrailing	25462
Ġunregulated	47289
Ġuniversities	11155
Ġtwins	20345
ĠLumia	38194
Ġsqueezed	29650
Start	10434
Ġ2020	12131
ĠOdin	19758
ĠThornton	37519
inals	6897
ĠCla	27166
Exp	16870
Ġdeleting	34817
["	14692
adena	38047
enabled	25616
Ġmor	2146
IK	18694
ĠDaughter	30332
assembled	46826
roph	10051
ĠOil	11474
generic	41357
Ġdissemination	44832
Ġ0000	17643
ĠYue	32854
Ġreasons	3840
Ġsymm	23606
Ġweigh	10164
opard	15478
Ġfaux	36748
Spec	22882
Ġbuilders	31606
Ġ/*	11900
Ġrunner	17490
ĠReached	13618
ĠPayne	32788
ĠMusical	33375
ĠCat	5181
303	22572
ĠHist	5590
Ġaccommodations	33839
Ġelite	9085
Ġsighting	42110
ĠEclipse	30991
Ġbeacon	34538
ohm	34028
ĠRail	12950
Ġchaired	44170
okin	36749
pton	10972
ĠBrown	4373
rane	14579
ĠThough	7486
Ġdiscriminate	28433
Ă	190
Ġdrinking	7722
ĠHIGH	34677
Ġgroundbreaking	31088
ĠSamsung	10397
Ġhalls	24350
lat	15460
Information	21918
voc	18893
Î¹	29945
Ġhomosexuals	35655
Ġinstr	6480
Ġputs	7584
endas	35624
ĠMongolia	44364
Ġlikelihood	14955
IRED	37819
ines	1127
7	22
ĠInteg	15995
ĠRevival	48095
ĠVideos	18637
ĠWear	27539
Ġpart	636
River	42204
uber	18478
Ġspoof	42078
ĠWILL	17682
ãĤĤ	43266
Extreme	36716
Ġ2025	32190
ĠRodham	41848
Ġanniversary	11162
CCC	46361
intelligence	32683
Ġpunitive	32952
Ġstudios	20747
Northern	40495
ĠVag	37203
ĠRangers	13804
Ġdifferentiation	32488
Ġhel	932
actively	33329
1027	40403
ĠPACs	43838
ĠSwitzerland	14679
ĠExposure	39090
pora	38851
rieve	30227
pir	4063
ĠRegistration	24610
Ġinvestments	11115
Ġmanifestations	38538
Ġphony	41421
ĠReno	33817
Ġplacing	12560
Ġstalk	31297
Ġswitch	5078
ĠAlberto	40649
Ġextraction	22236
ĠGT	7963
Ġunhealthy	27942
Ġforce	2700
Ġunsettling	38192
Ġtall	7331
Ġreusable	42339
Ġ211	28714
Ġstops	9911
Pros	35726
Ġrubbing	27714
ãģ®ç	17683
Ġcalc	42302
Pink	41912
Ġimplant	29016
Ġlifting	16842
Ġsheet	9629
aught	3413
ija	34655
ĠSimon	11288
ĠUCLA	21750
Met	9171
odder	35346
603	35642
ĠPistons	36429
ĠSovere	36851
ĠProxy	38027
Ġdeposition	32553
actionDate	31538
ĠFog	33381
ĠComm	1520
Ġhorror	9961
ĠGithub	38994
Ġconflic	4183
ĠDocument	16854
pard	26037
Ġaccidentally	14716
Cross	21544
Ġfoolish	19538
Ġlaid	8104
Ġpoem	21247
Ġreceptors	20099
Ġtheft	12402
ĠGuys	29899
TH	4221
ĠRecord	13266
reath	19367
Ġstudies	3640
Ġstag	35251
Ġleveling	34661
ĠFarm	11272
ĠMoe	46488
ĠPEOPLE	36388
ĠSomerset	46123
Ġgeo	40087
Ġorn	25322
agger	7928
Ġparcel	25232
Ġsupplemental	34885
Ġ1961	20510
ĠRU	46432
ĠLens	30092
Ġprofession	7573
Ġdiplomats	24836
Ġsteep	14559
|	91
zo	10872
Ġaspects	7612
413	44103
¦	99
rpm	48235
ĠFlorida	4744
ĠCongo	25935
Ġwarehouses	43675
Ġ405	36966
ĠAnimals	25390
Ġcarniv	41919
ĠNear	20173
ĠTracy	31140
osta	39818
ITT	22470
ĠKerala	34649
Ġpioneering	36304
iating	26336
religious	27626
ting	889
Lua	36127
dullah	23969
ochet	49579
âĶĢâĶĢâĶĢâĶĢ	16068
Ġtsunami	31019
Larry	42918
olesc	16850
TG	35990
ĠCOL	20444
Ġbreakout	31661
opolis	47575
Ġ(?,	32843
Ġdisperse	41273
ĠNewcastle	22410
ĠPeel	49266
___	17569
ITIES	30383
Font	23252
rc	6015
Has	19242
wings	48819
NI	22125
Ġsummary	10638
Ġvel	11555
hots	17398
Ġoperatives	27269
Ġstaple	25629
Ġtraditional	4569
Ġhead	1182
ĠGiven	11259
ĠHeb	27030
Ġretro	12175
ĠMous	42436
Ġadverse	12681
ĠChevron	50083
Ġinferred	41240
istas	37503
Seven	31334
rost	23341
mpeg	43913
Ġeve	28001
ĠReagan	12823
Ġexclus	10293
Ġdispers	39895
ĠX	1395
ĠMIA	44903
Ġinduct	28948
Ġallegiance	25696
Ġskyrocket	41483
milo	48995
ĠBenefit	38065
pel	30242
Ġpartition	18398
HEAD	37682
judicial	46769
Ġadvances	14901
ĠFeb	3158
ĠNB	41354
ĠPik	26025
ĠProgramming	30297
offs	8210
ĠRooney	33925
College	38951
Ġdate	3128
ĠICC	32300
Ġinspectors	29136
Abyss	49073
ĠMong	18428
ĠVirt	11285
ivan	13809
ungle	13687
Ġdemonstrate	10176
uls	5753
Ġlabor	4827
Ġmicrophone	21822
Ġold	1468
Ġoutings	47280
Ġsimple	2829
Ġscroll	10743
ĠSprings	18334
Ġenclosed	28543
hani	29839
ERAL	27130
Ġprepared	5597
Ġnasty	17166
Ġmodeled	29563
po	7501
Rober	15924
Ġforgiveness	26027
atten	41769
Ġturb	14830
enable	21633
Ġplastics	42257
ĠSai	25251
Ġbapt	20452
Ġpulmonary	45105
Ġstood	6204
Ġconcussion	27502
ĠScript	12327
ĠGoes	31914
Ġcontinues	4477
Ġattorneys	14449
342	31575
Ġgun	2485
398	31952
Resources	33236
Ġdangling	47270
Ġdiscs	31014
ĠBRA	39947
Ġsynopsis	48830
Ġfroze	37785
methyl	43654
games	19966
ĠUsing	8554
ĠCrow	15502
ĠRaces	45134
ĠclichÃ©	43973
62	5237
Ġliability	12247
ĠPremier	9952
ĠRaid	12448
ĠACLU	24381
ĠApost	19295
oters	26008
ĠTrek	12338
Ġmilitar	28131
Ġpenalty	7389
Ġreluctance	33506
bek	47083
Ġsshd	49249
ophobia	19851
Ġfict	16878
capital	27544
Climate	37649
ĠKlein	22864
achev	42961
iewicz	48596
ĠHyper	15079
ĠNGO	22142
ĠWand	22420
Ġdiligence	34136
Ġintersections	42085
Ġscales	16252
Ġwitnessed	13923
danger	38537
ĠWein	40966
ĠCorvette	49105
Ġben	1888
Ġawoken	43532
easy	38171
Ġprobe	12774
ĠGuests	46936
peria	38032
Ġquiet	5897
Ġsatisfactory	29962
ĠAub	19723
ĠShaw	18193
×ª	42064
ĠRic	15868
Mar	7676
ooters	48316
rency	5227
Ġconjecture	46768
astically	16607
490	31503
358	31128
ĠAP	3486
ĠReynolds	21995
ĠSecondly	34276
Ġexaminer	37240
Ġoutrage	11616
Ġperspect	6009
Ġprolific	28892
Ġstrains	21245
Ġke	885
ĠBritons	43310
Ġins	1035
ĠVessel	44734
Ġoffer	2897
Ġbaptized	40357
pr	1050
ĠPodesta	27375
Ġmedicines	23533
Ġdumb	13526
ĠGarrett	27540
ĠIntel	8180
Ġmascul	18498
ĠNAS	7210
Ġevidence	2370
Ġregulations	6647
!?"	42720
Ġvintage	20276
ĠPrairie	41196
Ġinclusion	14900
Ġserious	2726
Ġliberate	45521
ĠMrs	9074
Ġfalls	8953
Ġsemantics	33815
rehensible	34718
ĠHarvey	14943
Ġgreatness	27951
bia	23339
Ġparagraph	7322
iferation	49801
kell	17164
ĠExperimental	32286
ĠWindsor	31561
Ġfractured	34051
acist	20279
Ġconsensus	11529
Ġnormalized	39279
Ġrequired	2672
Ġsequences	16311
Ġspeeches	18138
Ġstringent	32791
ĠStupid	42930
Ġunl	9642
Ġreads	9743
giene	28363
âĺ	24583
Ġ115	12279
ĠNRL	41695
Ġburden	10538
Ġperceptions	23574
Ġancestors	18668
Ġbullish	50079
Ġradiation	11881
ĠCecil	32234
ĠReck	42331
Ġblond	32749
ĠNES	31925
Ġindustrialized	47670
Ġnotably	14660
ĠUltimately	24199
Ġcorn	11676
Ġpatterns	7572
Ġrelates	18436
ĠHer	2332
Germany	27079
dinand	41993
uded	19289
ĠNull	35886
Ġagencies	5942
ĠGentle	25066
Ġexplain	4727
Ġshortstop	40388
Supported	48181
ĠGravity	24084
endium	49811
ĠLow	7754
sm	5796
ĠWAS	21725
ĠWaterloo	36782
Ġfollowing	1708
dale	14597
ĠLords	18651
ãĤ¤ãĥĪ	42396
ĠSheet	21616
Ġages	9337
Ġmeasured	8630
Ġfreedom	4925
Ġspat	15246
Asian	43224
ando	25440
quart	36008
Ġbeetle	45489
Ġdiv	2659
animal	41607
Ġhardened	33034
Ġsupreme	17700
Ġuniforms	22551
Ġventilation	34834
ĠIsle	26378
forms	23914
Ġatmosp	6904
ĠAp	5949
Ġdozens	9264
Ġpredis	46276
Ġgathered	9272
Flying	49095
oon	2049
ĠLatvia	35794
Ġvital	9204
appointed	32924
Ġbelieves	5804
ADE	19266
oles	4316
ĠCursed	29492
Learn	20238
Top	9126
vag	29821
framework	30604
ĠKung	44753
Ġdivor	21781
Ġhect	35246
Heavy	33210
82	6469
Ġibn	47160
Ġprizes	21740
Ġstartups	21685
Chat	30820
ĠExhibit	35880
Blood	21659
Ġchallenged	12827
Ġforgetting	32012
ĠAdvanced	13435
ights	2337
Ġorganisation	12684
Ġwaving	25849
Ġ80	4019
Ġpaint	7521
]}	48999
Ġvi	25357
design	26124
Ġapples	22514
Ġartificially	32455
Ġinterrupt	11313
Ġvoic	40268
ĠVick	33347
ĠBART	42346
ĠWonders	47497
Ġaph	49812
Ġbrewing	21778
ĠJacqu	44726
ĠPend	36865
Ġdebit	30977
Ġmantra	32628
Ġupholding	46004
Jacob	46751
each	27379
Ġachieving	16937
rapnel	48766
asio	29831
aled	3021
Ġdisconnect	22837
penter	26419
ĠFINAL	25261
Ġfielding	43985
Ġunlock	12116
earing	6648
neau	46533
Per	5990
ĠUTF	41002
'	6
Ġbanana	25996
ĠMonroe	26249
Alert	36420
410	33289
Ġrefused	6520
Ġshort	1790
åİ	43889
ems	5232
ety	2963
Ġcomprehend	24772
Ġcontained	7763
Ġscheme	7791
FactoryReloaded	37631
Ġhotline	46989
eem	13761
ĠSeptember	2693
Ġstained	34568
Ġstirring	26547
step	9662
roximately	24378
hound	39047
ĠBroken	22607
ĠInit	44707
Ġdistracting	36441
Ġprofiling	31582
lock	5354
Ġeffective	4050
Ġemploy	1873
ĠMourinho	28689
Ġsts	39747
à	156
ln	18755
ixed	2966
ĠDubai	24520
Ġslim	18862
Val	7762
ĠDave	9935
ovic	17215
ĠEston	24633
ĠLanc	21534
ĠShutdown	40411
Ġintoxication	44624
Ġsponsors	18073
Ġtaxing	36587
Ġestablishments	33228
OTS	33472
California	25284
There	1858
onte	38599
ĠHOT	44607
ĠRei	33225
Gate	22628
91	6420
andy	10757
Ġflakes	42330
Ġlarger	4025
Ġsurvival	9441
FK	26236
ĠIdeally	40067
Ġactivates	36206
Ġindustries	11798
Ġlawmaker	31340
ĠAsian	7740
ĠProfessor	8129
aid	1698
ĠGreen	3469
ĠRoger	13637
Ġdivide	14083
ĠClaims	36880
Ġseeing	4379
ysics	23154
Ġcorpses	26750
ĠPrison	16999
Ġrobbing	47162
ĠOrion	26153
Ġpuppet	30095
Ġgarbage	15413
LECT	16779
Ther	35048
adish	48563
induced	17223
oller	49252
ĠBarnes	21335
ĠWTO	47074
ĠGarcia	18555
Having	14698
ony	1647
Ġhut	40812
ĠRecovery	21007
rint	22272
Okay	16454
âĸ¬	47530
ĠPatreon	29859
Ġdefined	5447
Ø©	45632
Ġmined	35959
Ì	136
uddle	24500
ĠPLoS	49832
Ġrealistic	12653
Ġstandings	33864
Ġuncle	7711
Ġwellness	42506
mx	36802
Aw	23155
Ġwrestle	46825
sheets	42011
usual	37850
ĠMega	13421
Ox	38208
ĠMotion	20843
Ġ85	7600
ĠSUV	26763
Ġfentanyl	47804
Ġhavens	47450
connected	15236
ĠKlan	31151
ĠMercenary	49969
ĠRM	29820
ĠRos	10018
Blog	42383
ĠDah	44864
ĠVega	30310
Ġmigrant	23088
ĠTOD	16926
elli	23225
Ġsmile	8212
Ġfactory	8860
Ġpayment	6074
Ġmarked	7498
ĠEventually	16178
Ġbystand	33326
Ġrevelation	16084
Would	17353
CPU	36037
ĠGol	26849
ĠDunk	39303
ĠIntent	39168
ĠRepe	30558
Ġscholarships	32055
opus	25790
Ġtrophy	16383
ĠRestore	42019
stals	41076
venture	5388
ĠRoad	5567
ample	1403
Ġxx	31383
Ġgastrointestinal	40887
Ġpus	4192
hog	31897
Ġtechno	44950
Ġ4	604
Done	45677
Ġworrisome	48367
Ġautomobile	27930
Ġdoes	857
Ġstrang	36666
Ġrenovations	44481
ĠWrest	20722
ĠMes	14937
Ġphenotype	47174
ĠExtreme	18111
Ġ413	46618
Ab	4826
ĠSwap	48408
Ġbeats	17825
Ġembodied	34413
ĠIris	34230
Ġoust	50151
Ġperimeter	25317
Ġvalues	3815
Stats	29668
Ġdesper	8029
ICLE	31419
MH	36208
apolis	11174
Ġ1938	28017
Ġgallery	15604
ĠWhe	5792
Ġwaking	23137
ERO	34812
IPS	47643
Ġcensor	42081
Ġ35	3439
Ġintended	5292
ĠCitizen	22307
gyn	40183
Ġeither	2035
Ġrampage	34040
Ġ580	41234
ĠNeville	35840
axis	22704
absolutely	42994
ĠPhantom	14407
Ġtransgress	44780
ĠGN	15484
;;;;;;;;;;;;	46939
:'	32105
ĠXu	33591
Ġacres	16051
ĠCitation	42317
ident	738
ĠFavor	38196
Ġlistens	35019
BRE	40438
Sam	16305
chat	17006
uds	24786
ãģ¾	30159
ĠColt	37360
Walker	39950
ä¸Ĭ	41468
ĠCanadians	14008
ĠReceiver	39106
Ġbenign	32293
ural	1523
Ġmotivating	46891
isbury	47967
Doug	42297
battle	38471
Ġbob	29202
Ġrivals	14987
Ġthan	621
ĠBlu	12391
Ġhazard	15834
ester	7834
Ġpassage	10066
ĠEdinburgh	23475
Ġ1080	17729
ise	786
oca	11216
Medic	39112
cop	22163
ĠPatrick	9925
Ġtutorial	11808
invoke	37669
ĠDart	29032
Ġcollabor	6967
itage	10208
ĠEt	17906
ĠDonovan	31565
ĠPenet	46975
inished	30603
ĠGram	20159
ĠNever	7236
OPE	32135
Tube	6876
isu	46313
comb	24011
ĠServ	3116
ĠKart	32872
Ã³	10205
Ġduel	24662
ĠNile	38063
ĠBrit	2490
®	106
ĠGeneva	20552
ĠOffense	43824
lin	2815
ĠPoke	41163
arn	1501
ĠSystems	11998
eval	18206
Ġalleviate	30885
Ġmish	29406
Ġoffers	4394
Ġopens	9808
Ġreviewer	37823
Ġsubclass	47611
Ġteams	3466
Ġunits	4991
Ġvetting	39822
1024	35500
ĠBowen	46977
-(	30420
float	22468
146	20964
bitious	14228
sel	741
wo	21638
Ġconspiring	50186
Ġfamiliarity	33065
Ġhidden	7104
ĠBeck	11739
Ġfractions	49876
Ġpickups	46462
Ġprojection	20128
played	21542
ĠCorona	44574
Ġtotaling	37066
951	50119
Ġwaiting	4953
console	41947
blooded	50132
ĠFirefly	40374
Ġfamiliar	5385
Ġresurgence	39330
oria	7661
Ġfund	1814
Ġthirty	12277
SW	17887
Ġposes	17313
[...]
